node {
  name: "NCHW_output/perm"
  op: "Const"
  attr {
    key: "dtype"
    value {
      type: DT_INT32
    }
  }
  attr {
    key: "value"
    value {
      tensor {
        dtype: DT_INT32
        tensor_shape {
          dim {
            size: 4
          }
        }
        tensor_content: "\000\000\000\000\003\000\000\000\001\000\000\000\002\000\000\000"
      }
    }
  }
}
node {
  name: "transpose_1/perm"
  op: "Const"
  attr {
    key: "dtype"
    value {
      type: DT_INT32
    }
  }
  attr {
    key: "value"
    value {
      tensor {
        dtype: DT_INT32
        tensor_shape {
          dim {
            size: 4
          }
        }
        tensor_content: "\003\000\000\000\001\000\000\000\002\000\000\000\000\000\000\000"
      }
    }
  }
}
node {
  name: "BatchToSpaceND/crops"
  op: "Const"
  attr {
    key: "dtype"
    value {
      type: DT_INT32
    }
  }
  attr {
    key: "value"
    value {
      tensor {
        dtype: DT_INT32
        tensor_shape {
          dim {
            size: 2
          }
          dim {
            size: 2
          }
        }
        tensor_content: "\000\000\000\000\000\000\000\000\000\000\000\000\000\000\000\000"
      }
    }
  }
}
node {
  name: "BatchToSpaceND/block_shape"
  op: "Const"
  attr {
    key: "dtype"
    value {
      type: DT_INT32
    }
  }
  attr {
    key: "value"
    value {
      tensor {
        dtype: DT_INT32
        tensor_shape {
          dim {
            size: 2
          }
        }
        tensor_content: "\004\000\000\000\004\000\000\000"
      }
    }
  }
}
node {
  name: "transpose/perm"
  op: "Const"
  attr {
    key: "dtype"
    value {
      type: DT_INT32
    }
  }
  attr {
    key: "value"
    value {
      tensor {
        dtype: DT_INT32
        tensor_shape {
          dim {
            size: 4
          }
        }
        tensor_content: "\003\000\000\000\001\000\000\000\002\000\000\000\000\000\000\000"
      }
    }
  }
}
node {
  name: "b3"
  op: "Const"
  attr {
    key: "dtype"
    value {
      type: DT_FLOAT
    }
  }
  attr {
    key: "value"
    value {
      tensor {
        dtype: DT_FLOAT
        tensor_shape {
          dim {
            size: 48
          }
        }
        tensor_content: "\263\303\376?g\311\233?\335&\026?\277k\000@\375\004\235?\006p\027?\031V\000@\255\324\234?\220U\027?~.\376?\322+\233?%\262\025?\215\371\000@\022\305\235?\363W\030?.\375\002@j~\240?\332i\033?\240\343\002@2L\240?\266Y\033?\335\245\000@h\034\235?s\345\027?:\032\001@H\370\235?\233\203\030?K\026\003@1\256\240?\213\203\033?/\365\002@uq\240?Ma\033?\354\267\000@\263A\235?o\375\027?K\271\377?\252\204\234?J\360\026?e\331\000@\t\270\235?\270!\030?\250\265\000@\344x\235?\006\377\027?8\333\376?E\311\233?\212h\026?"
      }
    }
  }
}
node {
  name: "b2"
  op: "Const"
  attr {
    key: "dtype"
    value {
      type: DT_FLOAT
    }
  }
  attr {
    key: "value"
    value {
      tensor {
        dtype: DT_FLOAT
        tensor_shape {
          dim {
            size: 32
          }
        }
        tensor_content: "\002\315\303\276;E\377\276\034\237\023\276S\255{\275\257k#\276\005@\321>rT1\276]e\n\277\001\221|\276\214\371\303\276\332\325\251?m\371]\2765\345\016\276D\273\026\277\'\300\002\277P~\'>BL\026\276\'%n\276\004\303\213\276\344\245\205\276\324\217\224\276\203\306-\277o\204\340\276T$0\276\201\3730\276o\261\317\276\336\303\220\276\"\023S\276\320\246\351\2759\237\200\276\334\000\217\276re\305\276"
      }
    }
  }
}
node {
  name: "b1"
  op: "Const"
  attr {
    key: "dtype"
    value {
      type: DT_FLOAT
    }
  }
  attr {
    key: "value"
    value {
      tensor {
        dtype: DT_FLOAT
        tensor_shape {
          dim {
            size: 64
          }
        }
        tensor_content: "\001\252\244\276s\214\213>p\303v?\240Q\000\274\313.\331\275\333\237+>e\276\250\275)l\255\276\035\245g\276\\=c\276jv\252>P\266\003\276%\316B\275\355a\231\277r\246\203\275O\3420\2761\323\215<<n\177=\350\276`?\021\244\362\275e\224\324\272$(\t\276\204J\204\277\236&+\275G\363\003\276\273;\257>\024P$\276\372\376\326\275\036\373\032\276\340\331`?\2660\201\2755\3268\276\213\244\307=\036\024\226\275\326\363\013?\3212G\276dIH=\365(0?c\022\237\276\313\035\377\276D\376\306\275\034\216\312\275=\275\242\275\217\246\264>\256q\244>-M\206;[O\227\276\355\374\026\300>#\306>.\n\035?q\020\310\276\242\006\031?\3652\021?\353c\251<S\262h?3\006\265?\376G3\275\254\321\036@\225\222\020@\260\237\210?ub]\276Kv\016>:\352\202\275\"f\266\275"
      }
    }
  }
}
node {
  name: "f3"
  op: "Const"
  attr {
    key: "dtype"
    value {
      type: DT_FLOAT
    }
  }
  attr {
    key: "value"
    value {
      tensor {
        dtype: DT_FLOAT
        tensor_shape {
          dim {
            size: 3
          }
          dim {
            size: 3
          }
          dim {
            size: 32
          }
          dim {
            size: 48
          }
        }
        tensor_content: "S\312\322\273\236 \214\275\275\356m\275\264\036\322\2757[\003=:\r\265<\353\376\344\275-\213\013\275\024ce\275\332\355S;\232U\225<\273\213\335\275k=\261;\316\371\022\275a5\007\275\262\177!\275\357}\251\274\255\336l<\347\326\r\276\212\375\222\275\310E\234\275\225\030\224<\222H{\275\375\251}\275\021\007\256\275\250\323\365\275\212\270 =jd\006\275\244w5=\257|*\275h\236l=\311#\210<\300u\375\275\244\320\241\275d\360\025<\014b*=\305\337\333\275\214\006\225\275f5\215\275\370\320[; E\242<r\277\000<HL\016=\3116\006\276jK\264\275\214\335\251\275\231r\002\276\255b\001\276\373{\274=\220.\203>\376\333\010\274\000\201B<\315\2400\276\266\321\r<\223\220\216;V\356\014\276\207\264\'\276\023f\215:\331\221\346>\0339\305\275\270\3404<xg,\276\215\356\313;X1N=q\021\005?\256\257\007\275\362\"\001=UBr\275\301\023\216\275\302\251\325=\265\331B\276]EX\275\2079\247=\325\237\356>\310{\257\2732\310\000>\005C\316\275\352&A\275\376\244\251<\247\352y>\262\256\360\274(\326^\275\300\"\002\276\333F\277\273\037\327\345\274Ll{>D\253\217\275s\236\004\275\n]\315>\326\240=<R\356\312\2735~\305>C\270\204\275!4\034\275q_\016\276\342\327\235<\224\244\207\275\354\376\203;\031#8>\332Z\013\276O\216\000=\323\001\226>m\337}\276F\016\215=\002_\233>c\340\310\275.\034e\274\224\037\341=\005r$\275%kC<\313\035\211>\227\225\241\275\367m\'\274\222\364\215>\336\336\336\276\336\207\005>\357\355H>V\025\254\275\031i\014>\355\217`=/\007&\276\253I\005>\321\255p>j&\002\276\332\206\262<S\307\025?L\322X\276\311\250<=\323\320A>\346\313\213\276\n\2011=Me\016>\0355\303\275.\241\275=\351t\373=g0:\276\366\033\327\273\355\207\035>j\355\036\276\220\332\274<\271\331d>\303\016\242\276[\324\032\276sQb=(\376\247=^\211\234\272|\230\004\276\367\273\321<09\004>\374\367\261=W\037_\274\022\325\030>Z\245\212\274d\'\021>L\236\360\275\332\r\227=\202\324u=%W\236;~\001%=V\361+\273[Q\254=vL\021=\320\tT=\236wH=Q\277m=\312\274\005>\311\227\304=\025\201\337\273 y\272\275\312S\263<C\361{=\036\254*=\202>B=2\273U=\233\322\021>\201\006\316\2732Z\263=\035\027\001\276\207)\276\274\200q\310\274G\276\376:\331(1\275\266\370L<\275\177\312\275\266\250\322\275\007U\003\276\226\257\026>\036\336\327<\247MM=];\227<\345\304\243<\245\2532=\320\005\366\275\na8\275\334\242\261>D\310z\2753yT\275\220\243X>\022\224\325\275\260\020\225\275l*\244>\214\3764\2762\310\324\274\377\200\217>v\017\213\275$\320\330\274\346\027~>\210\253N\276\325\004\307\275n\326S>\326\036M\275*A\304\274Jn\237>\0241\034\276=u\020\275\342\215l>531\276\231\260\220=\364\362\251>\035\312U\276\"@\341\275\223\244p>\313\362\365\275\016J\253\275\027a1>\016\306\372\2754\004S\275\241\031\311>\0336\344\275Y\363\273\274\324v\201>I\226-\275\272\371\204\275K\225\205>\205[D\276\272\261e\275\235\332\211>F;)\276\321[\226\275\221\211t>\032\006\266\275~\225M\276\270}V\276\235g}\274E\200\375\275L\225\003\276C!.=){w\275<u|\275;\010\246=~\037\226\274\245\201\245\274\000J&\275F\321\024\276\010R\017\2768 \204\274^\333\366\275p\235\346\275\326s\265<pW\242\275w\221\222\275S|\216=\036!\346\274B:\337\274\331`\342;G\254\273\275\271\344\245\275<\333.<\375\271\267\275\250\250\237\275\0259\021=JZ\202\275\007\306^\275\247\334\236=v\035\237\274\331\033\234\274C\373R=\216I@\2754\303\033\275\370H\203=i\330\026\275+|\373\274n1\245=0\310\231\274DK\226\274\212\265\315=\246\036Z\272z\235\215\273\031\337\202\275\311\024H=\373\217\220>\000\353\235>\350\3162\276\266(:\275A\214P\276ndz\276\351\345\237>\027RD\276\254\323\206\274\323\372\335\273\223\306\026\275\212\001\212\276\324\003\260>*\365\013\276\370 q\276\006Rb=0\266\233\276`]$\276\2459\247\274\370=\233>i\367\330=A\253\333\273\343\\\260>)\212\200\276\315?p=\325e@\276\355a{\276M\222\022=\t\236\'\276\336\306\263=\033\216\027<\273L\215>I\212H\276\206\020H=\375\035\237>\370\350+=\326\004S>\223\255\310>\251\275\236=\005\026\247>\270mw\276\366\233\017\276\272\271\310<\342P\210\276\333\036\250\276\214\352\346\274\366\013\274<\002 \316=\301\306\272\275\253=\034\276\344\035.=\022\023\205\276\020\332\353\275\241\312\212=w\306\243\276\3362\321\275\2613,< \352T\276\373\2647\275\022X\003>\001J\035\276~,\257\274\322\223\206=k\356A\276f\353\027\276o\021\301=H\013\373\275O}\351\275\262\346\230=?\3320\276\245n\261<\000\206^=R\271C\276m\031\005\276\262D\035\275\n\014A\276\262\020\274\275\364\033\301\274\340\241\003\276\023S\274\275X\0346\274qt\355\275\313\257\356\275\323R!\275\241\234\003\276-\355\026\276\244\310\326\275M@]\276*\262\215\275\376a\027\275\216\tk\276\017~\213\275\316\360\234;\to\275\275\260-r\272\325\225%\274\262\345\264=K \317>\003\n9=\373\r(=\203\350\201=b\376\226=;\202\313=[~\024=\\\207\260;rO\215<X\224\362\272\270[\364=E\220\201>\234a\222=Y\260A\275\032\266M\272A\362\001>6zA=\315\357\276=K\305\260=r\177\345\274\241\246\035\275d\2266>\306\372\357\275?\203\333=L\032\274=\277\373x=i\325\031>\241\222u=\361\367?=\252\340\313=3Dq>\314?\337\274\244*\376=\232\263\277=\345fg\275o\3423\275wt?>\314\202\260\275\"\235\337<\243\352\253=P,\t\276a\324\021=\262b=\275I\214b\275\024\001\034<\330\240\341=\22565\276\340l\024\275\221\025\013\275Yk\000\276q@c=\222\275\023>Y+\230\275\006\326\204\275\346f\224=hA\261\276\351\267\215=\236x\001>\362E\025\276*\220\312\275H?\357=\204\232\025\276#J\323=\317:\244=\334\0246\276[T\262=\207\036\247\271\271\036+\276Jf\t>\360\320-<\370\257\202\276F\207\245=h)L=\001\017O\276e\024\303\275\324\035\360<o\207\204\276|\275M=5\0309\273Y\001X\276\023T\013>NL|\274 _<\276\354\250\312<|\343X\275\300\005p\2763|\002\275<\006\'={\370\246\276\016\210\016>\266\227\017>\370\274J\276\302\247\n>\250\014\323=\027YX=\307\205\366=6X\312=\036+\024=\366{\213=\206\255\311=\344\266\346<\026\027\007=%\376\326=\017D\002=?)\336<\262~|=Q\375\247; \342C=\377\336V=\332;\304\273\343\010M<;PM=\272\201\356\273\373S\203\2735s\201=~\300\034<X\rX<\207\360-=H\346\254\274\031Xd;\265,\355<8\341\321\274yzo\274?\260\266<\304/\270\274\377\274\223\274\211\001\021=R\307$\2737\327\"<\010v2=n\264\237\274\3735\205\273\310\221\007=p\206z\274m^G\272\312\000\314<\373\'\033\274Y\251\313;c\254\330<|a\364:\303\013\275<\037\032l\276vq@>\242\373&>/\354\";xz\374=<\264C>\277w3\276\330Y\360=\',\235>\243\rP\276G\324\213>\354\371\304=L\020_\276\351\257\340=\243\335U>i\233k\276D\030\n>\026\224\241>eG\255\276\316q{=\227\016&>\304\260\"\276.\252\226>\210Q\217>\347\022\235\276X\357\232>\346\335\240>1dJ\276f\025\254>\350\t\231>\236\367l\276{\270\370>\260>\276>\372\367\337\276\304\207\213>\0328\204>\234\204\240\276\035\tL>\321X$>l\351\242\276\235\364\253>5\250e>\274\366B\276#\263\216>,\233\334>\014eU\2769\315\261>>Z\216>\216\313\"\276\020\203M>-o\274>\017\003\t?\034\261v\276\342\"\317=0?V\276H\256\024\276Y\021\322>\370j\030\276\371\344\221=\302{\017>\225\325\371\275y\2133\276\226\225\370>\267\277%\276ST\225\276\250N\263<\321\\|\276zD1\276\364\322\214\274mr\247>\357\342\217=\236$\316<\030\343\325>\312{\254\275\262S\374=\364t\303<5\220\207\276\355\"\177=\004\221\004\276\315\302\210\275p\254+=D\252\331>\030\212W\276\325r\372\274\276\372\275>\354\250\n\275\300\022\243>\007\313\222>\261\223!<7\316\337>r\376R\276\242\370\274\275\306\221\304=\375_\230\276\203\031M\276\375\027\314;\361H\300=e\t\005>\256\300\252=\230\374\302<\266y6=\021\364D\274`\375\316\275TD\325\275\376\255\323\276O\361\027\275\251Y\222=d\304\002\275\"\016\237\275\002\264\221\275g\350\216\275\206\236\'\272\235\341E<\2754\262\273be$\276\365\030*\275\272\310\213\275\303\303\242\275\206\002\034\275B\375\216<6\263\222\274\3779\313=z8\225\274>\316Z\275\037\\C=\t\276\371\275\010K\276\274h~\016\275f-\321\275\2528M\275\353\226j<,OR\275\177V\017?\355\277L?\2228\026?\213`\321\275\203;\367=q8\241=\273\0074<UZE\273\320\266\332\273\006n\353\274\271\236\211<\233\030\234<\374\337\231=\023D\332\275\337\275\324\275d3\210\274\352\350\262\273\250\326\301<?\203\026>P8\302=e\025F\273\324T:;/\032\013\276\240@\245\273R\034c\274x\252\310\27371\024\275mE\025<\365\310\235<\004Z\212=n*\221=\333\204=\274\355\335\"<A\221\247=\343\336\301=\352$\356=\211\204\362\275\300/\234\275/;\224\274\t\205l=)\272\236=h\330s<\336\276\356=\325tX=\323c\002\275\224g\005=\262T&=!\224\247<\365ha\275\324G\010<\264\336\241\275\260\177.\275IQ\214\275\2328\n=(\340\347=\244\251\315<@\277\377\274v.\277=\013\274\315<\026,4\273e\320\355<&Rg;\311\320!\275\337\207q\274PZ\375\274k\272W\275\276\251A\275\330mU\275\2078S\275\024\215\205\275\017-\215\275J\304Y\275(} = \236\203<\206[F\274\251s\324;\245\352\013\274\256\002\226\274\r:\322\274\017(\n\275\302\217\332\274P9G\275\025\267X\275\324\037#\275\344!,=\332\037\364<\022\010\\;\217)`<\247\007j;\253\314#\273\003\243U\274}\037\253\274C)[\274\023\351\t\275\236\033\014\275\236Q\356\274\260\274D=\240\255\322<\316\037e<-\r\275<\337W\227;\305M\036;\002\t\205\273\230\023T\274p\266}\274Lb\232\274\210\266\374\274\374z\323\274\224\035\226\274Y\273 >|\354Y>8\230\350>\014\276Y\276\006B\367=;\340p\276[( \276kI\301>\350\350\027\275\346\006A>\233&\032=\026.\025=\023\"N\276\247Q\260>\032h\014\274\322\224\321\275\204\235\220=\224\374\212\2763C\372\275\27491=\0271\000>/\016&>G\332\240=6\274\223>\370\005\000\276/\217\023=*\3009<\023\231\223\276\177\007F>\262\232W\276\347\301\227=5]3=\241h\325>\247GI\276\270\304\007>\021\270\273>3`\346<\255r\212>p\203\244>[@\240\272\025e\246>b\021\331\275n\325\251\275\'\355\r\274~~@\276g~W\276<\017\277<\001\035\303>\211\031^>5\312\210>\033Tv>\357!\220\276\310\217\013\276_t\357>\3023\236\276\007\300\207>\205\202\212>\273\346\276>\221\221~\276\222(\257>\323H\241\276\225\226\236>,\271\260>\315\212)\276\353\340#\276\230\244\345>\321N\215\2764-\210\276?\326\255>\375\027_\276\273\333D\276\024~~>\320\344\205>\227\253O\276\200\337\272>b\315\225\2768\336\250\276\250\236\312>\004Z\240\276\026\251Y\276\026\376\235>\336\234\203\2763F.\276\017\014{>\247\017\262>\331\274\260>A\031\253>\310k\204>\324\031\241>\340\004\307>+\035\244>\342\342\204\276\026]\325>\334\036\203\276o\2555\276\331\222\212\275\261\204\003\276f\340?\275\305CA=a\266\230\275f\\\267<\367.\327\275\325\227x<\221\357\244\275\245Y\325=\224\020\006\276#P=<G<\357=E\203\333\274\361\005\026\2764}\005=\371\306\221\275\003\037\270\274\034\273\324;\321\362\216\275\014\037\352;p\\\300<\034\320\231<xT\256\275\234b\014\275\324\\{\273&\032G;L\303\247=\013\257\325:\307i\245\273\340\274\206\275;\337\n\273m\037\\=?\357f<\0005q\274\222\315)=k.\225\275\301q#\276R\364\000\275\262\315\013\276B\037\020<\262\263,\274\331\344\270\272\353H\351\274(\355>=\234\337\237\275\346\224L\275\267\272\303\275\210)\204\274V\323p=\243p\004>\272\026\231>\304\014\330=#\323\210=F\265i=?\005\334=\023\002\305=~\004\010\275\034\321\250\273\251\347U;\265\216\265\274\370\036H\2753\344u>\226\214\'<\306\352==\023\277\237=\256\320\372=\333\226R\275`\021w=e\022\340=c\226\277\274\223*\0269\366\023\222>\337\035\303<\247\305\241=\233b\356=\302y\233=\0317\014>\233\320\317\274\355\371\010\276\362@3=\266\337\234>Nu\346=\201\006\r\275|\357\034>v\336\333\274t\342\237=\002\356D>f9\031\274\260d!>\030\334D\274j\276O<\'%\r=\217\304=<\221\252\235<Q*\252\274\267\377\322=V\254\252\275M1\364\274\032\332V>\216\337\001\276\"\r\227\276\233z\253=!q(\276\013\200[=0\371\">T[\004=\377L\003\276\250\355\300=\025-\026\276LZ^>\3469}=\226\013Y\276|I@\276\3722\236>,\330\305\275:\317H\276\346\177\030>?~H\276T\221g\276\334\211\261<+m\224=\247\230\231\276\206\363\256=\006\351\206\276E]\323\276\3561<>\236\244\223\276\344\244>\276\255n\344<Y\016\327;D-~\276G\014\325=97)=\371Z.\273\236\216\212<dc\247=\322\276r=^7\213=\270\201\257=\227\276$\276v!\373=\365\333e\276\n\260\250\276;\235{=\020\211I<\273\273`;\265\013\222\275\363}\302\275r\257@\276\307\360\372=\037\214\305\274\360\351\307\275\346\235}=\355\365\205>\342\305\351\275\030\223F<\010\216\317\275\216\313+\276U^\n=Ze6\276m7\026\276\273\214Q>\017\267\213\276r\332e\276h._<\247\245&\276nch\276\306\020\203=Q\207\007\276\375\214\201\276\215\225\024>\232\231\014\276*4\235\275\3035M>\264\0062\276\020\301#\276\233\035\002>A]Q\276WO`\276\013B\'=\217\032\316\275\323\351L>\366A\301>\n\316\'\275\256\016\203>Bof>\336;\274\2714\350(\276L$\271=W\337\370\275\217\030r\276\264\025\232=\257\363\025\275\352\237\223\275\226s\014=\361\271w\274\212;\034\275m\006\325=a\352\324<\232\214\267\275CB\003=\332-\312<\r*\026>A\372\\\275\274]\257=\344z\016=\233x\305:\025\243#\275\341\235\010\273\255U.>\265\033m=$\022\335=$\370\257<\r\357%>\263\026*>\033[\004\276mj\324:i\361\023\275\245\022L\275\251\322A=-\n\267<\210\241\025>2\024g=\327.\336=\265\356\365;q\303 >p\251\375<\351)\330\274\177#C\274]\024\246\275\312\261 \276\212\000^\274\332$\356<\215u<=J\2718\273\203f\037>\006Z\021=\211\252\373<;\260\030>\373Y\313\276\273\226\202>\n:\302>\\\210\344>\277\346\\\276V\306\220\273\254>\211\276\204\037q\276\"\360\210>\226\206\232\276\014\251E=\177\347v=6N\273\276\336n\270\276):\260>\006\261\315\276\005\326t\276\025\312:\273\031\021\307\276\372\374@\276=\023\305=\2558\356>\373\\\001>7\256\357\274L\312\342>\257=|\276\3050B=M\305\317\276-\322\237\276\350\215&=\334\311\217\276_V\250\275\370p\210=hI\227>G\301\226\276\326p\325=\236\350\327>y\315m<G\253\331>\321B\302>r$\027=\372]\210>E;\241\276\337\2337\276K\373\010=\007f\304\276?\036\223\276k\177N<\372\340b\276\341\003\210>\356C\263>w\245\315>\350\325\224\276i1\026=N\300\230\276\356\313f\276<%\204>\010\201e\276\3047A>\376\230\213<t\323\'\276\373\266r\276\031\221\245>b\337\261\275\201_\\\276R\237^\275\343Pf\276\016[\324\275\036\313\271=\017\343q>\263G\247\274\261g\331=\t[\314>F\366\031\276\345\033B\275\317#J\276L\316\205\276-\301\335=\301\356Y\276\342\216\347\274\354K\242\274\304W\267>`\256#\276qh\201=\036\026\253>\273\315B=W \304>k\341\226>]\264\201=\301\'\210>a\177\203\276\223\356w\275\273\236\333=\256\300\245\276\377\'\266\276\2675\223=`\322$<\373\271\341=b\375\212\27530\323\274K~#\275*&9\274<m\277=\241\271L=\'\314h\273\361\016\314=\342Q\031\275\021\353\327\275\025\'\265\274\2443\333\275\371\267\221\275\366h\353<\256\355\225\275\356\025 \275H\n\227\275\033L\000\276\r\204\r\276\257\002\035\275o_\256\275Y\3227\276\035\362\223\274\362\003\361\274K\211X\275c\200\013=\227\214H<(ws<]\254\330=.\203\260=eN\277:\010<\014\275W\344\230=\003\237\373\274\375\227\317<EB\346=\362>\000\275\216,\000\273c\265d<0\036[=\230&\250=\302\320\250=\210\337\212\2754\014\240\275\206\2441\275F8\272\275\342O\370=\355IG\273\240\0357:\350\202\227=\256N\363=\210\350\237=\367\264\'=\220\256\264=\200\265\020=\025`\005>\242\017\245\274\363\223#<\264\\\341=\313\353\300;\273\010\226<\016jH=G\357\025>i\324\210=R\010\236=\033\306\207\274\235\r\337=\230\035_=G\373S<U4\004=\377\277\251\275\270J9=\2177\346=\332\356\316=\255c\214=\332\177\230=\3151\021=Q\362\010>Q\274k\274\tJ\\\275,=\025>u$\303=\360\200\002\274s\2247\274\224o\375\275==K\275\354\247\035\275\376Gz\275\031\240\254\274\017\237\357\274\322\367\221=\t9\216=\366$m\273\tVT=@\265\376=\2732\354<\271R\201\274\364(\023>\256w\354=\342\217\241;\242\230]<G\314\303=\326\363\340\275\364\030\026=\013L\000\276\205[O=\236\241\n=/n\n=\2026\247=\230\253K\274\257\307\322=\\\r\302=j\205\010>G\302\202=\342 ?=\274-\262=\002\360\372\271\324^\346=n\315\267\274\004\363\021=y\351/=\232\344\007=\353$X\274\310\261\205>\372k{;\351C\373=\005(T=+\265=\275g\236\026=\021\203-=%#\244<e\324I\275\320\3259\275<{\305;\3267\372\274\355\203\310\275\243.\365\273\355\371\333\275\342\236p=\256y\260=<&\240=T\332\266=g\204+=E\237\036\275\214\260*\274\017\344\004>FB$=Y\347\226=\314\272\225<\204>\002\274\357\250\210\275e\033\200<\264\273\0079\021s\005>+\001\276\274?\020\026:\301\214\347\274\361\233\007>\017b\363\273bP==\375\225*>7w\317\270\037\372\017>\022c+\273}N\204=2\226\375=\272\225s=\316\227\217\273\204\2776\273\226\340\331\272,$\326=\3679\325=\205\220%>\307\351\200=\321a\020\274p\355\251\274\3722\375\274-yR=\314Z =<\213\265\274\200|\217<C3r=\374\031\237\275h\005\341\275z\317\232=)\031\201\275\360\231\236=}D\'=g\270\331=\206\245C<U\221G\276\0243\244\276\211\363\253>\346Jm\276\312\273\216\276P\330\245\276\311_\253\276\246\311n\276\n=\240\276\34181\276\323w\240\276$\225[\276\374&\210\276\303\250\216\276\256\266\275\275\306=\235\276\010\345\210\276\t9\252\276\003\226\231\2768\251\243>s\376\213\276\272\376\020\276\254\330^\276\262\022^\276\223\323O\276\370\r\211\276\243\212\242\276\234\372p\276\313-\210\2766\317\220\276\375\n\204\276\254\364\250=\023\022i\276y$\230\276bU&\276\225T\203\276\360B\365\275d\217)\276_\035\221\276&z[\276\317i{\276\275Y\211\276\350\002\234\276\004\nd\276ih\233\276\307\031J\276F\223\\\276\2677\254\276\247\\.\275\216W\344=\212\352s\276\024\226\002\276\343\222<>\306\002\243\276\311\033\224>\033=W>5K\311\276v`\234\275\242\267\'=\213\305\232\276\260\355\264=\264\210\333=@\231\230\276\026\270\235=\316\345\005>Jc\254\276\235\205\201\274\235\312\352=~\332\242\276|\336D\275\236\177\236=\340Z\237\276x\3523>\361\337\237=\030\266\301\276/\025|\276\365\253\251=Z\321v\276\356\026\377\275C\376B>\357\n\263\276=\034c>\337\242\207=\274\233\254\276\221\3318>[5\273=\377.b\275\244\371\245=\367\020\320<\256-\261\276XkS>9\024\345=\245\224s\276\245!r>\373\3136=U\254\207\276\024\363\321=\360N\213>Gx\376=;/\005=\014h\203>\345\014\335=\355\242\024\275]\255\243>\314\356p=\367O\364=dg\037>\324\206\334\274\302\257\255=\212\361g>8\016Q>;[\242=o\002W>\021\036\033\274\245\311\273\275\037\231\211>\006\234A=A\376\317=\341t\231=9\316\336<\321\301\021>6\002\361=\311R\310=1(\304<\367<\206>\360\016g<,\200V=\221\244Y=q\2647=Y\000\320=Z\246\222> IT\274\222\024E>\305O8=2\375\n=\253r\220=\207qM=]\tz\275\005W\340\275\033\257\270=0\267+:\204\247\021\275wU\207>\356\325A=3\266\210\275\227\357,\275\310\205Z\275}\007\232\272N`\271\275\336e\030=\374\032\377\275\314\220\"\275\245\231\361\275\250\347\361<<}\323\275\242\307(\275Yv\031\275\020\343f\275\344\rV\275`\366\017<\352\322\333\275?\225\226\275\330\270\327\275\352W*\274\211]\355:C\322\r<\264\366\212\274~\204\027=\263\007q\273\266\235\241\275\\@\265\2756\243n\272\333W\300<\"\035\005\276\317.\257<\210\212\244\273=\312\237<\271\326\031\276\030\361^;\325;\305\275\032\235\363\2753B\343\275v\017\017<p\212^;$r\251<\302\315\344\274g\006r<\341\221_\275\363\367J<S\346\366\2744c\304\275\331\261\033\276\350\323\304=\245\305\251>\211D\220\275x\n\206\2703\026(\2764&\363\275u\213B>i\030\277=o\212\004\275\325\323\025>\322\312\027?\221\221\230\275\311\223k=\224\214\357\275\344f\033\276QT\373=q\003\025?<)\276\275\3338\031>\033\332B\276$\206\365<\002\003\236=Rtf\275T\026\373\2741\316Q> {\320>\302\031\254\275\001\025)>4\343 \276\341\260\217\274\322.\237=>\321\222>r\020\373\274\332\250\212=\336\355q\275\306x\313\275eO\360\274UI\254>\032\177\006\275\330\026>=\201g\247>\355!\232\275\333\323\232=\203\024\275>\007\317H\275\237\344k=\017v{\275\025\255\354\273+m\020\276\337|\220=rB.=\303\275\"\276\203\256\216=\360d\035>$\021Z\276\246\303\224\274`I\233>\333\257\020\275\022O >\246Gn>\304\020z\274\022\024\006\275\213\246\212>>\201\274\275\305\221\223\275\371#\265=\302\335\236\276w\327\t=\356\2513>\033$M\275\026\304^>T\023\267=\r\345\212\276E\"\232\275\272K\274=\327\224\227\275\271KZ\275\240T\211>w!\246\275\014\257\336\275\376pg>\334\236\266\275\016\204\260=\367>\335=\034z8\276d\331\313<}!y=\257\367I\276\014\202\246\274\222.\317=\361\331\264\275W(\260=\331\311\032>\307\236\034\276\233\1771>OKz>T\034w=\\\312\214;V\2336: 03>)\263\376=\2041\030>\365vX\274sk\310<w\rt\275\221\325\303\274\031\255$<\203\217^=\274\342\\;\235\036\240=\021Y\314\274IXJ=\031\351\301=d&\316\274w\010\320<\2033\025>{\tw=C\326\334\274\303\236D=\007A\026\2746\375P< \367;<\307^\365=\032\342\246;\334\256\3729\017\314\n>\305r\026>O\314\367<\307\036\233=\'\032y\275\177\374H=\216h\245;geq\274\217$\017\2768\007\224\275\350\356\274\275G%\r\276\353\273\245\275\343\"\025>%\276\366\275\301\016\307\273\274\277\205<,\210\250=Zh\202\274\377\316\351\275O\245\200\275O\177\203>TmL\276t\253q\274\005\353T>\366\316\002\275\304\010\004\276\007\3579>?\212\333\275xi\377\275\250\206@>&.\237\275%zA=\216$\245>m\234)\276C\307w=\234\022l>\330\t\n\276\365\3163\276;\206\202>\240q\033\2754\207W\275\026et>\300W\325\275\315\363O\275\036lb>\t4\223\275\354\210m\274\237\374\222>c\227 \276\020S\254\275\355\026\223>|g3\276\322.2\2753\300\301>+\035 \276\321\247\005\276\356\242.>\261\257\003\276\240\244\306\275\337Ei>\307\321\032\276\200=T\276\336\206\247>\007\221\023\276p\263\213\274\271\334V>\310q\345\275D\314\230\276{\316\225\276\231\004\t\276\n\265\245\276\033\317\246\2766\364\n\276\216q\247\276\262\245\247\276\273\321\365\275\224\264\234\276_#\231\276\352pg<\276\r&\276X\275\024\276l\020\203=\367c\352\275\223\276\311\275\3508q=\347\260\363\275N\314\315\2755\020{\271\004|1\276\326\357\030\276\375\334\266=\274]\236\275\035\213^\275\362, >:E\r\274_\204\201<N~\026>@\256\212\274\314MA<\305z\206=\036G\305\275\t\356\202\275T\231\334=\032\250X\275\327f\006\275\363E\376=;\347\014\275\0263,\274\236\201\350=Y\036,\275=\316\200\2741C\242=y\313\231\275\007\253/\275O\217\305\275\317\257U=\357R\251>wI\260>\204\302y\276\240@W\273\331\013]\276b+I\276&\327\207>\233z\346\275e\022\002>\237\354+=\n\363+\276\346-g\276\342\351\215>\026:+\276~\2558\276\177\352\216=\215\222l\276\352\272d\276O\034\220\275O\306?>\207\236\210=\363\227\203=u\321\232>\336\227\205\276-\346\270<\036\360\345\275k\024U\276\025\014\235\275\347\215\214\276\'&\201\275\222\026\234=jx\215>Y\375\023\276`\370\245=;\005\322>\347J\243\275\377u\235>\360\366\261>\306g\346=\227r\224>f\274\345\275\252nW\275\224\315L=\237`\211\276\221%\254\276\2267\235=\026\276/=7\250\246<\367.\002\276}\3544\275\336\356\243=\340\223\237\275\320\371\372\275\360\275\332=\366\262A:\256\253.\276\254\034\234\274\236\313\004\276\013\253T\275Y:\326=\265\350\t\276\264\303\303\273\377\223\227<2\303\007\274U\353\211\275\276\031\361=\020\240\260\275~7\210\275M\013_=\315U\260\274\220\346\266\275\025$\013>\366!J\275|\357\242\275<\355\347=xxm<\231\340)\275\357o\032=\025~\364\275<\256c\276\261\026\213<\2607\332\275}\000<\275y\022\000>\226\212\353\275\227{\n\276\371F\001>\334\006\334\275\001)\313\275\024\265\253=\016\244\210\275\362\323\375\274H\333\022=\302\3079\276\\\373\227=\002\367\010=\312\206\215<\0325h>\372\"Y\273zf\224;\240\225I;\022=\320;\321\2472=\307|\301=\025T\244=\\6\002\275m\357W=\370\252\203=s\202\205>\341#\327=\003\302\237=\026\271#=&\225\014>\336|B\275\211n\317;F\342\002=\277\'C\275\355\270\247=,s\214>\271\374\037\272j3\352\274X\204\013>T\345D\271\365\311S>\205\333:=\245gR<Q\251\325=\031\331\221>\036\213\340\273\004\313\005>\320\266j>2\273\336\275452\274d\363I>\3569S<\036\201\321;\342\212\307\2741q\273<`Yb\275\312\204:\275\257\366\234\275\355>n\275\371]\322=\270}\253\276\255\303\204\275\220\313\243\275\335\177)\2769Z/;\007\306J=M\026J\276\022\303\353\275\3561\366=B\2120\276H\310i\274>\351\317=^$4\276\233\335\231\2751\246\366=8t&\276\206\313\326=#\347N\275\3410<\276m\355G<#M\010;K\203\322\275\353\325g=(q\205\275\256ax\276r\272\367=\370_\241=\272\2541\276\272\000\311\275O\005\032=\214\375\027\276\377\351\220=\005\311\217\275\203\271B\276\303j\245=\206W\310\275J\362\242\276C\177\220\275\210\030\304\275L-m\276\002\275\343\275\005\031\313=g\315\273\276\332`\244<\206\203\354=\350\203a\276k\010\022>\341\222\030</\320\342=\321X\215>>\224L;\364\003\354=\205\227\233>\227mI\274?\251\311=\341N\226>]? \275\001\024\205=\032\362y>A\031\350\274\202/(=k\316.>R\255J\275\n\355\301<\356\340.>\030}\205\275\265\321\333;\267\341\">\023#\234\275\260\361\305\273\207w\013>\177\313\023\275\320i\324;\351l\331=\177\365b\275\005\200\210\274-\304\271=[\345\215\275C\223\002\2756\240\243=\306\014\243\2750Y\037\275\342\220\222=\314P\207\274\325\360\376;\371\205\253=\276.\263\274\301\030\261\273\201{\226=\321\236\007\275\017\327\226\274E\264\203=\236p\\\275\373\302\002\275\300Ac=\274\022M\276\376<\024>\266\364\250=\202\013\265\276\032\2016=~-l>*\036^\276.cN=lK\213>\3664W\276d\314P>\010Y[>q\242R\276\221\244Y>\267\211P>\335\251\317\275\350\333\022>\3041\205>2\r\212\276\276\t*>j\226\223>8\2204\276.\340\022>[\332\013>\224\271\275\276\214\341\330>\371_\224>\333\'\r\276\214^\212>\235\347\354>\013\321\202\276X\230\002?\261\202\301>u\016\225\276tvr>\316\2646>\250#\262\276\222\206P>\3526\231>\361=\224\276!\201\241>\246J\236>\002\201\'\276\230\353\271>\220\032\205>\020\215\210\276n\321\240>]\n\245>\212q\262\275\010\365->\311\010\271>\3072\370>\234\177G\276\335i\256;K\027\225\276k\3270\276\014w\267>\032]%\276R\276L>\366\362\026>C\251\016\276\371q6\276\215\256\324>\270\007\372\274o\0224\276\312\366\313\274\336B\344\275\034\2668\276\361\315\211=/\344\262>Z\224\237=[:>=\375\377\304>\216]+\276P\3646<\024@\373\275\262+\237\276\260\331l>F\275\332\275E\343q\274\326 \222=\020\267\247><\017\\\2765\304\200=]2\373>f\322\321=\253\225\277>\316\373\253>\364\034\372=\321\365\321>\036\3024\276\364\032\241\275\3235\305<\244=\217\276\334\207C\276R\366\017>M=\377\275\267\345\251<\037R3\276\00149<\031JE\275n\202\301\275Y\240\014\276\235P\344\275\270\320\211=n\217<\276}\241J\276|\216y\276_\330\013>\245\000t=L3\205\275O\300^>~\321@>\375\244\360=\270\317\344=!%P\275\375\336`\275/\215\206\275:\r\"\276\314m\037\276\225~o=\275\224j>\331\330\263<\253\004<>\225\3455>M\003\265=\227\221\312>\266}U>\312\277G>\310h\007>Q\312\350;\367\250\265\275\003Q\235>\276\206\310>v?->\270\313\016?\000\235a>l\371X>f\372\225>\307\267\017?\027\302\244=\013w\331=\303@\014<\213\177\343\271.\365\204=\254\214~\275\210C\006\276\352J\307<\300.(=xz\021=c\024_=\346+\237=eF\017\275\275u\347=\344s\246\275\371\267\306=\224~\246=\016\022\343\274\366\365\234\275\260\227\372=\317\326\275=\003_\307=\273q\224=z\025S=\\F\252=xR\013=%\335\331;\3054\237<\363\264\376\271\rr\002\276\312\274\367\274\336\316n=\003\330\277=\213\007\227\274>J\006>\315\317\324=O\301\276=\347\256\341\274\254YN\274#\231\005>\345\351\025\271\352\247\300;\371V\003\275\221\302\217\274Z\223\237\275cm\251\274\002=\177\274\242\202\356\275z\025\262<\024\343\002=\'\231\226=j\330i<19\322\275i+\263\274/#\336\275\303D4\275)\215\004=\354\330\232\275F\217l\274a\212K=\346\353x\275\224\272\252\274\250\212~=\305rS\275Vt\253\275iM\330\273\302S\270\275\177\216o\274\232$P=2\0238\275\216z\234<\\\352\246=)\"\314\274?&\332;u\355\255=\242\370\213\274m:\257\275\252\270\210\274n\337\222\275\201\r\222\274\266\031C=\234A\021\275vTU<\017\332\233=\212zK\274*^\311:\361\251\216=\371R4\2741\316\357\275\337\222\316\274\017\344\243\275\325\272\221\275b\266\020<\301\347P\275\302\347\017\275\3101\037=\274\264\333\274\302p\002\275\300\026T=\237\252n\274\312$\220\275\304\036\\>\262r\210>\276\"\374>\236@>\276\006\030\267=\375\230\321\275?\372\010\2769\376v>MM,<V\251)>\033\224\356=\332\366\307\275x\255L\276/\303\262>\017\243\010\275\303;t\276\377\347#=y\345k\276M\013\251\275\021\256\337=\003\344h>\033\331E=\241i\021>\321L\306>\215-,\276ez\267=\270\342\364\274\375\270{\276\343\205%>o\357:\276q\303\353=\344)\017\275\177\017\331>\347 >\276\221\317\200<N-\316>\372K\020>\222\302L>2\023\333>\n\240\t>|\227\276>\261\t\274\275vg\024\276\377G\r=\313\307]\276\221\224\243\276\3613\310=\323w\254>To>>n~V>\334\272\237>6u\215\276HMe\276\031\242\246>\031\030S\276\241\033\327>?\235\232>\331\032e>\036\017\203\276\373\246\233>KU,\276K8\221>\257\024\215>\367v\227\276\273Gk\276\231\212\244>\374\004\231\276\244\036\234\276A\030\214>\203\207\225\276,\324.\276\265K\226>\001\372\232>\'xC\276\325\214\313>\213\204\205\2769\200\201\2763\226\332>\306\354\206\2767\377\202\276\272\001\235>S\230[\276\246\027z\276\353\270\244>\367sg>:\212a>\365W\201>_Zf>=I\317>4U\253>\270k\264>\307\212\035\276\255\237\312>\330\362\022\276\225\304\222\276\001t\247=\010w#=\267\2729\274\035Qg\274HS\337<\021\336\275\274\302\241*\274\311\343[< D\337\275%\004\313=\231\200>;o\311\303\274r0\216=\234K\224\275&>\177\275\203\254\356;\357\031.=\n\022\304\275I\220T\275\222\271{=\200\266\372\274q\0363=\363\262i=\3321\222=y\r\233\275\337\225\007\276\241\341u=d~2<\263\314W\275\370\037\263\275\201\332\343<\301.W=\177h\236\274\3046\357<HL\212=g\270Q=\217\220\014\274\0264\235\275y\024\006\275\016F\242\275Z&\271\273\344\014$:\365\375\343=o\333|\275\311\262\021=\315a\277=\331\333\237<\300\023Z\275\020W\017>\033>\241=4Z\341=\345a\246>Y+<\275o\030\232\274\277l?\275\274\004\210;\213\365\'>\017\326@=]\264\263=\353\235f=\372(\274<\240\036\010\275\231\213{>f\235&<YF\241<\251\306\335=\300\306\376=\206e\353=bP>:0(E>\177,m=+\006\007>\\Sa>s\3621<\300!\305=\216\243\273\274\030\367\245\275u\025\">u\322\020\275\267\260%=\254\363K<\252f[>-\354\200;\014\230\341=\rkp>Xm\277;\232f\273<\277\";>1\373\245<{|B=</\365=\224\250\267<\032\312\000>\325!\366=\243\316\261\274qMP=\314#\t>f\360|\275\2438\324=<\366Z>Km@\276Z\252}\2763\246\316\273>\350u\276Jl\325=\321\310C=\314\310C=\371\017\307\275\205\\\037>\001\223\271\275L\216.>\300\034)>\001_#\276\326\021\220\276-\347k>\343\341\023\276\023\246>\276\020.\342=i\234\201\276g\373N\276\375t\275\273M\253Y>=\222\213\276\365\354\324=$Sa\276\340}H\276\356\375L>\3774Q\276i\255\033\276\222\375\313=v\205\362\275=\234R\276\362j\205\275{\213\210;\2613\305=\251\267\252\275\366F\216=s\274\354<\330\234\212=-5g<\357\323+\2769e->|\002_\276\217=\005\276\246\306\221=\251\207\001>\240\250\025>\025\2169\275R\342{\275\020\265\376\275\304\276\375<08\032\274N\201q\275\2555\261=\200\354\357=9\277w\276m\302\232=\000\325\353\275j[\264\275K\2178\275\002/\237\275\034\004,\276\333\356->\023x\344\275\240\367\021\276\361/F\274\376\356\344\275\371\265\207\276/t\037=\312\177\275\275\2633\325\275\326Go<w\271\'\275K\341,\276\357\307\231=\357\211)\2763@\006\276\023x\033>\016jt\275\026\0136\276\036\365H=\026\270!=\267\244\201>\227.\240>\314Rt=\317\212G>\023\327X>\231z\017>\365\022w\276K\361\020>\004(\373\275\327\377\204\276\250\371\335=\356t*\275\207\315\324\275\236\342\313\274\244\207\032>\245j|=A\005=<\003\304\227\274+O\257\274\320\364\273=\326d\003\276\343i\272\274\312.\226=\010\2627<\354f\300\274\240gc=PT\311\274$5\035>\235\220f=o~\217<T/\216\274\314\235\022>O\365\227=\247\276\300<\217\363\207\275 \030\t\275\203\367\345<[=\241=lF*=0\371\025<\3128v=g\371D<0L\245=-\230\341\275.}\r>u\333\202\273\021\205\214\275\341\277\365\275l\302\010=\274\235\274\275\200\201\024\275/:\240\275\244\214\233\273\205\316\200\275J\335\307=\013\363\247<\345\345\000>DL8=\336Z\266\276\252\255\'>`\217\251>\021\216\255>\013j\262\276D\241\245\274<\371\224\276\216\025\271\276\223@\333>\255\225\252\276{z\252=\247\023\036>^\337\270\276\200\333\272\276\363\275\314>\205%\273\276=\034U\276\177m\005>\030V\330\276Tvi\276\242\316\230=\250Y\342>\034M/>S<A=G\002\315>\376(\016\276\024\257\265<\001\257\222\276\374x\227\276MX\221\275\312{w\276$\246\204\275\033$\351\273\347\361\334>\322Ld\276\275:\017>\362\266\343>%t\333=\007\324\257>\021\"\254>.~2>p\307\301>\022\033\261\276r>6\275\374\251\343=2\252\310\276\005\'\265\276\214M9\274\374\213\017\276\272@y>\311J\240>\315\357\341>\375Em\276\240\311\353=\251VS\27674\250\276\341\212\330>k\027\227\275\241.B>\325\021\260\274\002`\372\275\333\3023\276r\361\346>#\342(\276\312\363\245\2767\277\240<:?\235\276\237\027k\2769\030\270=\013\205k> \000\201=\0354o=\243\006\225>\010\363d\276\305H\350=]^\213\275_\221\220\276H\253\362=\025V\224\276\212\214\330\273d.e\275\373c\302>\220|/\276\326\333\227\274\2633\257>\007\221I=T]\211>VA\326>\365\212\335=j%\217>\337X\327\275\302O\037\276\272\314\367\273\347\366U\276\277CL\276I\3348=\375\362z<\025\2376\276\016\273\256\275\222 \306\274\336\271)\275\225\033\007\276\321\326D=\023\363I<M;\266\275\0018\251<\327\311C=p\033`=#\244\240\275\330K\270<\315\366\306\275~\010\302<\"\321\036\275\356\">\274|{\262\273\352\353\217=\366@\021\274\346]T<\273\224\255=;\236\004>\241\275\364\273\234\266\032\276-\237\212\273\306\021E<f\375\215\274\336\\\323\275*\237\253=\307\323\377\275\030\270\246\275\374YB=\227\225X=(\3361=\033\374\241\275V\305\376\274(H\275\275b\301\217\275\234\264\200<\273\377\357\275\264\201\236=\212\373I\275+h=\274a\352\016=\\X\271=\350\236\206=\242n\353=\204\336\322\274\355\306\034\274!\211\220\275\264\241\254=\252\036c\274\272\033==pb\214=x\353Y\275\3041\267=O\3152=N\020\244;\213\002\304=\221\276\242<J\302\316=\256\270\014>D\371\026>\230\341\340==,\277=\236\256\235;\213\033\";\207]\240<k\217\222\273\211\376\331\274\347\256\331<\257\263\237:\232\231\247<z\204\323=\205\327\031>\360\t\340=eiP=\361\214\316=\207\314U=\272\214\035>\362\276\253\274\313gY=+\303*\275|bj:\370\205\233\274w\352\037\275\3311\035=\225\320\273\274F\220\000> \317\016\274\0034\335=\004\203\217<\200)|=!\317\r>\376\271(\273\3644\2619\220\003\005\276\360\022\336=_\357\003>X\355\340=.V\013=\"_\315;cq\232=\245\n\314=\371\217\330\275\245\327\016>%]\022>\337\315\374=\330\026q<\331\301\030<K\275\227<\241\266\005>\226X >\217\371\014>>\307\265=\201/ >\t\036\035<{\234\305\271\231;O\275\373p\337\275(\347\372=\366\374\203=\276\272a=\337\177\251>\374O>=\010\361\002>n\r\341=2\2613<\026\241S\274\217*>:\215c1\274\251\203\254\275\201\355\001\276\325%1=\305? \275\2115\235<\311M\265=\352\346\325\275<$`\274f\206\330=p\241\304=\200\214\350<\350pS\274tb`<\227\302\315<\177\314\310<+\232\221=\204)\305=\345\303\001>[b\177<29\273<\035\371a=\272\266\'\275\271F\312=k\'\304=>\340\337=\314z\262<\230C\006<\261\017\262=\257\244\300=+\237Q>\371j\324<\323\2620=q\314\017>\031\371\356=\374\027\337=\223\230\234=\357\017\227\275%y\231=,\360T=\034\004G<b\243\230>\237\230]=\266\351\014\274fe\233=\337f\217\274\032\251\016>\311Q9\274\254T\320=\032\234\212<O\210\"<1\221\237=~p\213\275\273F7=p\036\261=}\0354\275\030\367\301<|r\021=\367\255\376=O\370\250=\333\360\254\276\023\336Y\276k.\225>E\351\235\276\032G\226\276\335\254\221\276\334yp\276\274La\276\260\231\256\276\264\313\206\276\033\014A\276/\225\252\276\332\nI\276=C@\276^ \370\275K\261K\276\326S\245\276\341w\223\276\206J2\276\311\347\301>v<\202\276\266\345\022\276\021f\246\276\242,\030\276S\305\251\276\225\326\213\276\021mD\276~\177I\276]rV\276\270\363a\276\033w\244\276X\320q>X\251\217\276B\323F\276g\337s\276\300;\244\276+]\023\276\2316\217\276\025\242\231\276\232\221_\276\033$D\276\272\300\207\276\267\2324\276[\227\214\276\306!/\276\000\265]\276E\005\234\276\325\037(\276\321\n\353=.7\002\275\271\254q\276\030\274\351>\nt\200=\317uF\276\026\344\215>0p\212=\304\335\274\276*\207N=B\265\030=\337OX\276\364\331U>\007\331\347;\350\201\320\276-\007/>X\236\t\275\021\206\263\276A\303\207>\363\332\375\274>\365\256\276\0103\303=\230\n\242=@\005A\276\201T\022>\246\365\032;\257f\273\276\031\334c\275 \307\270\275\326)\257\276M|8\273\243\222\233<\303\000\245\276Q9h>\330%/>\360\222g\276\002\035V>\357\313\201\275V\367\213\275\360\313\220>\201>,\273\342]\266\276\275\374L>\302\241\251=\3729\273\276\027\340h>5\260\246=\234\226\256\276v\204\204>\335\001m>E\227\265=\365\360\260=\262.\353>mi\014>fA\236>\205\212\274>\227\026$>\021\036|>\035\313X>\267\211\255=\325p\216>\350\260\267>\231\213\213><+\204>i+\310>\3509\006>xE\316>$\244\373>b\375\t>n<*=O\274\316=\215\203\231<\367\030{>\305m\034>\322\370\032>V\321\263>\rh\265>\201l\364=\324\013p>\271\221.>7\265\351=\036\016\026>\347o\251>T\246\013=X\357S>\207\002?>G(z<[O4>\014,\022>\376n\214;t\267\247>\355\330\032>\267bH<\1771\211>`\215\212>\'\025\214\274\201\301\340\275\216n\036\275\004\246\350;3\207T\275Y{@\275\353\013\236\275\016L\005\276\3151\311<,\244\003<\370\210\235\275]$\344\273\235j\r=\250;o\275\'i\262<X\t\267<C\355\302\275\377V\024=\245\016\216<L\256\272\275\344\227\274\271\267_#<\272A\222\275_\360\363\275\227Z^\275p\220\302\275\001\004\037<\256)\371<\324\261\242\275q\001.=\352p\022\276\357\271\304\275\217\014\355\275\365\364\327\275H7\367\275\376ZR=PD\320\275\3555\242<\246\253\233\275\246\241\321\275\240[\314\275\275\311\301\2751\325\347\275\010\033N<L\256%\276\324Z\341\274\227\023G\275_\266\002\275\325Y\307\275&c\256=\007\302Y>\017\3564\276~\361\330\274JN\206\275\210\255\206\275$\307\025>$\205b\275\363u\306\275\270\311x<+\244\351>j6\224\275\337-\211<C&e\276\030\032\260\274\027V@>\202u\000?\n\375\177\274\356\361\366=\323\311\002\276$\266\006\276\000\t2>k.\337\2750\005\254\275\031\324\341=\"H\333>-,\253\275\r\271\326=\335\313\005\276\3760.\275\321\033\265\274\013\316\206>\033Y\217<k-\271=\317\3759\276\353\3556\275q\313\373\274b\267\213>R\276\014\276\366\270\312=\242\203\240>\022\2234\273\316Lg<\r\336\244>wKl=\265X\276=\256\206\346\275{JJ\275\235\302\332<b5\204<\230\235A<\035\263s<Z\"S\274x\325^=\321\233\267=k\332\375=_t\'=Cx\031<-\211w\275D2\244=\216jB= \273)\274\211uP=\256\332\207=f\001v=L\013\344=\342\310\r=\374\202\317=MT+;pq\016>R\242T=\310\252\256=\322z\005\276\234\226\347:\235\206w\273\016\r+\274\220\035x=\320\034\023\275u\342\004>\000j\202\2764\266\262\274\260l\312\275\266L\247=V\266\213\274\261{\331<\222#\034\274h\256\202\275\357\250J\275\312Tr\275e\202\020\276\020P\335\273x\004\277\2741\373X\275\373\326\002>^\260\227<\0327\301<\21781=\204M\247\273Ji\014\276\007\330\217=\032\263\213=m\017\273=&\030B=\265\375\333=%\005\214\274\n\265\017>p\375\206\275\375\013\353<\264Qh=\027O\250=&\363\356\275\005\321[=\350]\243=\273c\024>\002\344\324=T\213\004>\207\313\350\274T\252e=[N\006>5\n\266\274.\244\345\275\202U\257\2742\364\021=\013I\021>\003\327\\<\270\0278=\026W\203=&\230,=F\347\027>\t\351b=\317N\367=\351\023#=.A\247;\241\350\236<aa\003=s\265\232\275\364\r\277<\000\376\227\275\335\310\017=\350\331);\276\"\265=\\p\r>\200\214\\\274L\272\343<\2635\014\275\360R\242\275\376\376C>\2013\342\274\\\373\202\274\206J\227>\212\n\035\276,\312\036\275\357\302\034>q\352&\275\301\254w\2750X5>\363!\010\276\323\347y\275 z\242>\372\256.\276\226@\212\2757-%>EB\222\275\201L\002\275\372Y\236>\377B%\275p\370\225\275\265R\213>5 $\275\332\204\236\275\300T|>\036\177(\276\355]~\275U\361\\>J\273\303\275\347\004.\275\332\355/>\372\002\361\2756\231\t=f\265\245>\257Y\203\275\251\220\033=\341\203W>/\033 \2769hz\274\001\250|>\031Q\327\275;\3651\275O\200\203>#v\261\275pT3\275\2625K>\362\027\372=\316\021\005\275\317p\215;n\263\225=%<\254\275\332\031\'\275\273\324\241<\231J\022\276\2716\331\275=\342\003\275k*N\276\000\3635\276\272\306\357=\214&#\275\232II\273\265NV=\327*\326\275\265dv\275\004\341\244<\252^\020\276\336\217\312\275>!\321<\004f\021\276\211X\340\275\270X\013>\311\031\306\274\275\315\023<\236\250\241=\351\214\242\275[>\034\275a\272\201=\225,\310\275n\017m\275%\265\267=c\273\233\275\370q-\275}\3701>}\3016<\035\220\001=\023\n\031>\341tD\274G\330V<\014\341\021>\275\320\267\274\230\240\273;?\325\032>\303.Q\274G\030#<\354\333Q\276\026D\036>\276\267O>\026\212\260>\216\316\200\276\"\240\301=$\036i\276sF\246\276\335m\235>\254K\313\2750\240\347\274,\316 =\323\313?\276\025\266_\276\307\356\202>0\363X\275\234}\232\276\360i\346<\231\303\255\276\001\311\013\276\314\346\247\273\356\r\247>\254\325\254\274\'\201\241;\237t\333>\032\225\203\276\316\0037\274\373\t\'\276\005,h\276c^\261\275l\tD\276h\252\205=\267n\224=\330\365\306>\265\207{\276\302\254&=s8\310>\025\254\206\275\276\177\252>\256\352\207>\352[\270=\213\263\215>^\206d\276N\013=\276\364C\214<D\254z\276\025\350\207\276\310\000u\275\340^\215\276\3165\033=\324\304\013\275\346O>\276\203l\211\274\366Y:=>\271$\276\374\000\245=\002(O\275T\274\371\275\316\306\221<=\244\275=\244\217\t\276\233\255\347=\306,%<;\372\310\274\246\234\234=\002O\371\273\017:\205<\t\226\244=P\313X=\033W\321\274\026c\224=\206\035I\275\202h\032\276Y\214A=\305}\355;8\215\323\275\370f\r=\025#8\275\224\2550\275C\035\220\273\006^\030\275\353\233Y\275\337\317\260=\016\376w<\233\376P\2766R\224=Cb\353\275\177\243\021\276X$:\274\373/`\275=\003\214\275n\223t\274\013\307:\275F\213\016\276j\371{=X\341\232\275}Q\237<\2455D=2,L<\3550\205>\254\331 \275\271\261\275<\261$\336<\204\264R=+3F>\314\325N\272\376\300>\275\222\270\301=-\215 =\204\246?\275\244\374Z>A)\370=\017{\216\272vPu<\200\364\226<\354\2063\2757hr\274\367\252b=i \227\273x\036\026\275~hE>{\254\010\276\372\361~=\262\365\375=\204\221\306=\312\262\275=\265Y\303=Q\310\266\275\2303\355\274Q\321[>~\304\030\275\231+\353=\252Z;>T\351L=k\\\211=\236cO=\270\177\254\2757R/=+!P=\244\240.;b\322\261\274\244\326\215=W\254\204=\321\370\330=}\263\'=^?L\276k~D\276\346\233\336\275\031\007\035\276\010\231\335\274ZA\">\353\254N\276\257\326\304\275\tF\023>\220\312\255\276\351_\211<\033O\014\275sSk\275\365\034\270\275\215\035\370=?\313\'\276\2013\024\275EUm=\007j\034\276\201\356\231\275\267\254\207;\220\313I\276\267\240Y=X i<:o!\276!\266\026=,\352\326<\021\303\217\275\001}\037\276(\2367\275\322\343i\276K\223\"\275P-\263\275\023\3372\276\331\004\271=\'\031\323\272\031J\215\276\342JE\275N\273\202\275 \235W\2760\325\345\275\376\264\273=\330CP\276\000\265\032<7\310I\274\320E\004\276\207\226\031>\241\022k=\177\366\235<\375M\271<\215;\200=\311\236\320<\355\030\'=\210\227\235=\260\004K=V\353\257=\270_\315=\006&\254=\246\010\027>o\001\t=\220\3153<\247-\275<V\377.==\235|<\220\206\366<\031\370v=\267\032\010=\362Il=\205\332\236=\033oT=\216&\271=)\346\023<.\366\037;[\212\230<\314\317\227<\367\366\356:A:\203<\026l!=\t\224d<}\321\363<7\036q=\302X\350<\234\2736=\304\017\310\273k\213!\273\2227\262<\3607b;\003\201\031\2733\023\200<\021\235\273<\3217\231;^\201\214<\001\303D=!\303z<\3557\250<I\222q\276\276\020\210>\037\\j>\2034\320\276\215\365\330=\203\372U>\267\345\213\276\360\274\204=\275\333\032>\006\212\205\276\334\352m>\014\231\332=j\341W\276\013vW>\370\200{>}\375:\276\225\375W>\350@^>+\276U\276~\336\024>k\330}>\300\t\246\275%\373S>lY1>\025L\275\276\250\260\220>7\240\272>,\327v\276\3628\263>w\026\314>\332I\221\276\'\325\005?\245\373\200>\310g\305\276\021\306\004>\034%\223>\030{\321\276\013m{>\330\262f>\224l\326\276Kx\264>\314\214\207>W\342{\276=\352\302>\371z\203>\032\326\237\276{L\325>7-\272>\307\337\242\275gW\035>lxr>Y\332\312>\026\373@\276`\334\211=\\\237C\276\273\313-\276/\363\243>J\363\274\275^8\207=)28=\371j\241\275\207\346\005\276\331\001\250>\255={\275\210/\233\276\321\275\363< \034\201\276\233\303>\276\016>\304=\027\3316>\316/\003>K\304\300;)\275\314>\007\036\035\276\242\2301\275o\030h\275\272uv\276\255Z2>Pj\375\275\000\351S=\332^\377=\233B\253>-\227Q\276$G\013>\\\377\316>\2270\363=\365\216\221>2\323\273>\226\033\202=rK\274> \242\000\276\216\242\025:=0\361=_\313G\2766x\255\276\032d\235\274\003\351\350\275\276\007\227\275 \265\335\275\035\223\017\276\025\345\336\275\253\350\017\276\354\315\324<e\274~\275b\203G\276L\3254\275Q.E\275\343\303c\275\262W\202=\000\321\203\275CE\212\274\007$G<\354\362\253;\034\nH\276\373\261\320\274\215\3679=\247\031^\275\222w\220<\0038d<\204\362\266\275\370\237f<\301\217\221=?)\021\276\245}\024=\322I\221\274\225\013]\275\274v\221\274p\204\300\275\363\025y\275\310HA=\255\200\257\275a\376\035\276\327\005\001\275%\211\241=\354\010A\273\212\r\336=\334,\277=\"\275\201\275g\342\220=\311$,>\235\314\223\275>\316\232=\303\343\305\274W\005z<\275\356\227\273\037\232\300\274\207\034\316\275-O\271<\3631\021>\027\260\022>\330(_:w\025\200=C\224\356<\\W\204<6,l\274\201\224\n=\330\264\215=\230\207\346\273\224j|;\320E\312=\004\336\010\275\245\224q=\345\373\271=,\207\305=U\253\324=mk!=O\203\331=\025\210\014>\210[\004\276\202\363l\275\362\331\327=0\273\243=\210U\000>Z\353\342<\232O8<F\301\360=sK.9f\031\001\276\026/\222<\304\233L=\313Do\273\033]\366<\320\237\233\272\037\371\355\275\305\255\362\275\351J\026\276\256\302U=\243r\030\276_\351\247=~\206\201<HB\205=J\010l=:\"\264<\0003[\274b(\272;\272;\347;<\372\006\275\000O[\274s\226\037<\312)\356\274Zr\364\274+\211\t=\324\004\333\274V\225\"\275\355?\253<s\202\025\274u6X<s\2560\274\341/\024\275\3219\231\274BcW\274J\217-\275\333\311\375\274Q\221\210<\3456\013\275\\\001\016\275\371K\013=\251\005\261;\256\360m<(\nV\271?\337\326\2745\271\306\273\331\005\260\273\343~\377\274#(\235\274G\035\250<\243\r\237\274\317\340\200\274\221\253s=6\201\231<\210H\305<\035\324\037=y\376\370;[7\037<m\205\354<\370s\304\273\373\030\';\376\216\037=\223#{\273\242Lr\273\346\034^\275\216\035%>\372_{>$3\334>\203`5\276\327V\256<Qg\026\276j\301\220\275P\036\267>_N\036\275\365P^>\327\034\210<\224b\005=\032FQ\276\025\247\271>\206I\325\275\033%\337\275\201\254\221<\341\223V\276[=\376\275\277\010#\275\347\006D>\361\214\031>]\216\334=%\257\256>u\207\024\276{\223v<Vz\275\275[b\030\276\324.S>e\254\000\276_\356\003=\320\013\252:\023=\220>x\2157\276\006O\352=\362\006\245>\220\023\022\274\023Jy>\346\347\224>\246\031\320=\213\003H>y\247\030\275\025\230u\275\303c\344=\014\317+\276\000\274b\276\001\246\356;J>\333>y\001O>\367\\\231>\002\323\227>s\002\221\276\022\312T\276\364\034\234>\331c\211\276\004\260\302> \365\205>\204a_>\001T\232\276\013\330\225>;\373\027\276\304$\241>!\023\340>\020*R\276\3219\034\276?O\312>GGs\2769:]\276g!\250>\236\221\207\276\200!g\276\353\241\213>\231\202\316>\276\220\t\276\305\256\270>\326\013g\276\360\262\\\276\262\357\320>[\204\253\276\353jC\276\032xl>g\245b\276\275\323W\2768\375i>\247n\270>z\304\204>\226iw>\331\032W>69\233>.\314\306>\346\370t>\027\nK\276?\242\227>\253\'\013\276\330\2758\276\253\3762=\314\177\307\275-\273\342\275\303\323\367\275\004\200\364\274o\302\203\275\251\204)=c\\I\274\004f\016\276\343\321\331=4\327\034\273\215A\241\275\314W6\274\034\375.\274\345!\331\275Ft\t\275\325X\323\274\200\235\260\275\234\rj\275N6!<Z\032\321\274\027Cy<d\300\360\274\223\213\211=\222:\200\275\266\350#\276\220A\214<\016\000\265<}\274C\273Z\300Q\275\374\272\336=\016\205t\275\244d\235\275\177v\346\275*\210\031\2752\'\363\274\300-\370\275\230\273`\275\036\252\006\276~\005\225<\024\250\304\274\370l\007<^Rx=\022\027\271\275\212\031\207\275\255\0041=\363\275\353\275\271\221\201\274>H\303<Z\006\215\274\253\233\241=9\344\203>G\027\234=\014_\237<?\021\212=G\202\020=\347a\014>[\235z<\302v*=\022\017\313<\310>w=\373-\377\274\375$\222>\317\013\252<\206\222\202\275\375\221\356\274X\223\342<\217\325\232=\'#!=\nv\004>\260\363\200=\006\364d=^Zj>+N\212\275M\203\266:Y\036)=\371o:\274\302a\233>d(\332\274\233\277\206\275C\201\257=\021\266\217>\275\254\034\275\323\246\323=\032+\211>\213A\302= t\225\273\013\226/>e\217\230=\262V\215<\020\200\337=\020\010\364;\364\350\325=\376\206<\274h\360\313\274\252\207\224=\3715\310=x\025\223\274R.\333\273\177\230\013>\357:\n\276\337\307C\276\204B\241<\250\264,\276\257\301&>@%$< \262\253=\222\324+\276\312\035\371=\252\365H\276K&\004>\222\003\031>\'\232\321\275\344\336k\276pE\n>\333\347\030\276\245\347\033\276\204\321\377<A\201_\276;\227\330\275 \262\331=\036\363\177>\032s\232\276\377\033\021>\247\r\n\276\234+\002\276n5\347=\267p\212\276\355\273T\276\201\203\244=\177\326\263\274\263#l\276\345\304\027\2759p\201<\204\225A=\016\364\014=\2229\233=\321~\210=W\346\007>\213\226x<\254\215|\276!\0040>hO}\276\355\201\005\276$\254\273=\331\276\324=CT\210>6\226\337:;\371r\275\337\267q\276\353vt=\266\256\022\274\327>\226=@J\214=\005\341\305=\231?\016\276\0258\274=a\245-\276\362\275\276<j\234\374=w\237\032\276\374LE\276N\367X=\373T\201\276\n\265\225\275\324\267\356\2742\202\020\276\304B\361\275u\370]>F\274\t\276\t\000B\276.dA> \200\322\275RhH\276\267\373\237=\202s\302\275\351\335W\276\031\335\224=\370\3569\275*!R\276\207\032g>=\323\251\275\004\000\211>\346>\242>\303\371*\275\237\326\225>\263\335\017>23=;K\207u\2760X\275:\314\236\207;\217\307\311\275%NU=\205\201\264;\247\370\263\275\346~\016\275\211\014\001>6\360\006>sb\022>\250&\033>9w\203:\243j\344<A\354\255\275\212B\361<\246\260\367=\n\242\360=*\020\230:\235M}=\037(\315=\375\332B=\251\366\205>\374n\215\274\262\343\207=\177L\242;%\315\003=\371k\005>\203\307\303\275\277\351\003=\236\373\202=\323\000\225\274\035)\213=p\254(\275\207\255\235<\264\265\205<\023N\207=L;\367\275\277V\022=k\325\301=\225j\311\274G\356\226\275\rmk\275R\302B\275Q0\351\275\261\360\207\275\343?\275=\023U\335\275?\323\313=)9\t>\304\246\216=U\274A==\334\200\276\212\361\231>K\270\313>\325 \342>$\267t\276\032\245\204=MO\267\276qS\231\276=\333\343>V\002\302\276y\341#>\350u]<\274\261s\276\334[\272\276\271\316\266>\372m\261\276=\272\312\276\033C}\274\177\315\371\276.\032e\276\372D\233=\036\200\005?\217\223\373=\375\202\314<\002.\242>\256\226\024\276\036\341\036>\035\025\202\276\231w\264\276\346\364\026=\335a\216\276\302\333\306\275\310\014\022>\347\036\325>/\273\233\276\240\363\374<\373\300\237>\034\031\212;\200\240\217>\276\n\230>\216\036\206=\224\341\217>\213\314\312\2768\310\306\275G\200H=\244\345\254\276\344\362l\276\271\337>=\202\261}\276\002\023\217>\323l\264>\034\313\256>\001#`\276\3449\277<\366\350\234\276\242\254p\2765\241\213>#!\335\2750\201=>|hG=\373\017c\275\005Xj\276\263_\317>vF\301\275\354\2629\276\\z\276\274\nY\267\276F\035m\276*w\232;t\246\216>\321K\237=\254Z\274\274\270{\331>v;%\276c\020\203=\002\326\036\276\003UB\276CJ\277=\357\366R\276$\314\326=\300\323\030=5B\343>\"W-\276u\244J\273\323\277\245>{\'\013>^\353\300>\226\354\303>\370\237\006>wS\301>6z\220\276B\243\306\275\321\010s=\361\212\253\276\021Fi\276\223\222\007>p\035\300\272\374\3603\274\017\346\232\274\356\347\317\275\005w\031\276\242\213\364<\206\244%=\213?>\276\271\216\376\275\347]\302\275G4\"\276/\251o<\312\020\220\273qu%\276U\313\242\275\230\306\260\275Pr1\276\262\177\'\275\311\312\247\2742\356\223\275\337\003\014\276\313{C=t\301\022\275\302\344.\275\306\214\243<k\360\231\275\324\005\313<\232uM=\t\3147\275\033\266(\275k\347\244\275s\274\305\274\204\373\234\275\247\366|=\227\334@\275\"\224\347\274\220A2\275Y?\025\276\211\332\000\275Vc!=\323(\314\274M}\244\275:8\303<\303\241\035\276\202\201\340\275\374o\363\275\300\376!\275\370\3278:\305\271\030>{ \244\275\201\245\256\275\373\374\201\275 d\375=\371\225\344<P\310\004=J\002\212=\227V\347\274u\265\322\273Q\035\271\275\037 \275;\230I\230=r\t\374=\334\3746\274\302(\303=d\232\375\273\004\236\034=E\353U=H\220\345=\323\271\345=\323\202\357=\214\207\212\274$\243=;\310\354G=\002{z\275\211\317\352\274\022*\027>\035\t\020\275\2770\351\275\272\224\216=\353\307\324<\204\357/>E\031\321<et\002>\021\321\230;\241z\343\273\313p\000\276\006\346\251<\204\2204\2749\223\232\275R\377O=u\365\317=y\220\032\275\t\030\266\275Q\3133=\347\211\231\275\000w#=\314\215>\2745;\250\275\3542\251\275\303\323\202\275)*\002=X\303\207=(\006\332=e\356\t>;\034\245\275\325\325y\274\230\375\314<\320\365\267\274\032\217\362=?5X=\355\3357<\305\254\t>\231\253\335=9\202\275=]^n\274\336\266\013\274DmU\273\027\253\324\274lf4<6Q\213=\250\235\222\273\302\371\266\275\210\212\347=qZ\n>,\224P<\025\352\230=\260\035\006>\213<z=\310a\204<\226\002C=$$A\274|h\340=8\000%=\346M\325\275\215t\200\273:\374\331\275sT\264\274\r\020\374\274\303\242\016=\006\240\200\275\343\271\227=\006\263s=\371\337\346=\266\244^=\253\351\350<Y\242\265\275E\3247\275\021KL>B\317\246\273\'j\204=/UK<\326\320\235=V#?\274\002%9;\350\361<=\314\364\325=\0029\266=\353~\352=\021\3415\274\222\235\336=>j\272\273n\230\036>\321\003C>\376\037\204=\243G\013>\036u\006=M`r=}\373\233<|\032\340=F\236\251;?\320\275;\306=\304=\375tI=\035\243\021>Q\243\370=9\n\345=\220Z\023>\t\r\034> [\317=i\230\272=\356\336\235:\247+\305<\267i\340\275\353\207\232\274\026\0017\275\3642G<\302R\023>?D\334\275\016\006\270=\025`!>.O\262\274\035L\275=t\366/\276U%\250\276\3427\352>n^A\276\327m\213\276_\226G\276!V\206\276\367\010\266\276:\270\231\276\251\220\252\276\260\346d\276Oe{\276\241\331\215\276\2510\233\276\327\220\'\276ZEM\276\257\345Y\276\"\032\206\276N\215x\276\034\356\263>\232\001\261\276_\310H\276\255Ss\276\033\324\214\276\331v:\276\003\207\263\276\270\267\207\276\216:\240\276\267\323k\276\272q\265\276W\022\207\276$\363\257>K~\256\276Oi\255\276y\035\216\276\003\210\203\2764\311\201\276\250\232\233\276\353\025Q\276Q:l\276\020\372\236\276\337\257\232\276\354\267\226\276\017\374\211\276}\372s\276v1h\276\335\335\216\276K\263\225\276\224\327\253<\0207\317\276\312\224\022\276K> >\302\037\306\276\330D\237\276+Q_>R\254\352\276\023#\207\276m:\371\274\243U\376\276!\016\177\276\227\215\213>R\274\316\276;\246\344\276<\235,>c\n\270\2762)a\276K\354\370=\221\016\255\276Q\375\217\276\340\345\025>pN\343\276\300n\204\276\220\244o>\304#\325\276s\224\227\276J.X\276\352\242@\276Iu\337\276-3\304<C\375\362\276\275l\276\276\244\354\037>\3314\250\276\276ky\276\211\305\">\364T\255\276\224*\231=\"\267p>\033\311\016\276\337i\255\276p\266\025>&0_\276\206\343\224\276 ;\210>\326\306\313\276\362\257\327\276\265\240\244>\215)\222>\005\325\362=E\014W>|W\367>w*\001>\321\314\331>\005y\370>\013Ax>\372x\303>`\007\242>\213uE>\246\271\270>2.\266>\364\240i=\002?\244>\315\342\311>*4\276=\242\270\373>zv\325>,\'\351==\272\243>\324\207\260>;s\002>\030%F>\314JA>U%$=\274\212\225>\251\024\313>\017\246.=\326\022\256>g\334N>\263\300\032=\237\016P>\263\032\360>\034t\027>\374\341\334=\226\346:>\027\271\033\273\207&\">\\\372\\>\3435\320=\240\344\210>+\304,>3\315\030>\002\377\261>i\'\226>\003\017\210=k\235J=\r\276\216\275K\226\001\276\370\271C\275\346\004Y\275\315\'\034\275\246\211\332<e\362\':\013n\375\274\023\323\216\275\330\301\342\274\007i\026=t+\254\275\314\237\0338@\314\035\275\005s\212;\232y\211\275\321\304\016=o=\000\276\340[\342<\275\005\221\275\237Tj\2753p\241<\274\234\346\275\361\036\256\275\r%%\275*\367\201\275\022\270\025;=\3478\274\325\247\262\275?\263\035=\335\206\022\276\205\226c\275\027\317<\275/Io\275L3\264\275\260\223n\274\020\311\351\275ya\214\275y.\354\275\370\256\312<\302\366\210\275\204\2209\275\372\024\323;\210\034\000\276\254\350O\273\334\251\037\274\342;q\274\370+\t>\250\250n>\2558\001\276\341C*\275\240\325\007<\263\306$\275VG\n>\300r\203>\332\364\024\276\001~\002>\314\207\n?[\027\344\274\377R\366=\326\302\245\275\372\222\025\275^d\001>\321<\357>\357\267\312\275\373\351\343=]<\014\276\217\270#\275\200*\236=\350\037\022\276G\307w\274R\024H>\342\355\277>\345O\231\275\344\336\237=\267\010\315\275@{\345;8\361\203<\030L\t?\203\030\324\275be\234=\021\357\275\275M D;2]\305=\021re>Z\360\031\276@K\000>)\004\254>\302\t\r\276\242\257O\274\300\243\272>pO9<#\370 \274\353\201\314\275\231\315#\276l\262\210\275*\001\310=\231%\000>\3063\335\275\324\241\231=\215\266\243>(\3012\276\323\263\321\274\235\234h>\007\260\351\275` \206\275\227?\003>{3\277\275U\244\350<\301\272\256>\355\260\260\275/al=)\016V>5\204\350\276\352\212\303=\221\013_>\262\211\030=\001\251\372=t\274\004>>\223~\275\213\271J>us\206>m\276\220\275!\237\345\274\314\362\350>\001Cp\276\235!)>z\016I>j\372\252\275\177\301\357<\\y\231=\255&\210<\265E\010=E\324\351=)\302\303\275\233\236\277=\335rU>F\036\206\275\360|\213=\274\335\236>\263O\244\276\274\311%\276{\016q>\313[\244<\222j\377\275\027\362=\275&2Y>\030u\031=*\231\\<\326&\273=\251;\036=\024\356\362\275\003\256I=\245\\\332\275*e\320\273\217\2170;\267\355|;-t\237<bT\246=pw\307=\035@5=?N\357=\220\216\035=\215\226\244:f0\317= 0\224=o\245\276;\201\\\300\274\266\351\300\2756\257\021>\244\030\234=\322\251\025>\203y\374=-\002\313=y\225\305=D\007\017>\013\310\261\275*1\226=\014\367s\274\342\300Q\274\271\3017\275#\222\271\275\014\021)\275a+\240\275\247.\244\275a\361\335=S\206=\275\rB\360\274j\200\342=\370\356\233<\261\014}<\017\363\025\276\305\022\301\274\254\316\270>\375\017\023\2761p\207:\036\271H>\354K\022\276_\022\032\276\312\313\241>\016\0146\276j[I\275\014\337j>\247G\010\276\310p\240\273\211\\\260>\\\270\254\275f\177\266\275\375m\233>)\tR\276\244!Q\276G\333\201>\224\367\010\276pb\214\275X7\213>\017`\321\275\211\322\"\275E&3>\205 m\276\246j\200\275\210\230+>(\324D\276\323\034\257\274\24180>\032;\n\276\n\271:=\374\365\223>\263\231\'\276\371\265\224;\365\257|>\317\014M\276{n\'\275\233\204\200>\377e6\276h\372\324\275\341t\224>t\323\210\275\242\027\232\275\303PB>\001\"\024\276\235\242\210\276\352\\\245\276;\325\251\274\007\'\005\276\322K4\276JB;=0\037R\275\363\331\260\275jGJ=\321\272\030\275c\316\202\275w\236\036\276\220\013\220\276\333\317\261\276\216\027n=\361\374X\275W\373\331\275\355\343\026>\002\352R=\272\313=<\344h\275=\2019\367;\335)\264\274\200\326\033\276c#\215\276g\245\255\276\277F}=\357}>\275\274\203\310\275\323\334\030>\026\342b=\026%\217<\340\224\277=\344U\'<\031\321\234\274HX\021\276Vm\204\276*\356\234\276;\212T\274nL\357\275\322\340\036\276\035\255W=s3\037\275z\241\216\275v>b=\305\350\346\274OoV\275j\237U\276O\344\311=)\363\262>\245C\277>$\206\231\276\1772\254\274\320b\212\276N\322S\276Y\327\225>RSS\276\335\013\022>?\026\006\275{W\035\276\300\355]\276\007Q\312>\243\313\261\275,\215\230\276\362\311\314\274\025\224\271\276\344\177\207\2764N8\273\254\376\237>O\325;=G\020\033;\337\036\222>\221\033\r\276.\307M=\333\221\263\275\217Ax\276K\331L<\311\327J\276\246\231\363<7\264H\275e*\270>\021\202\235\2767\215\313\274\006\231\357>\030Q\363\274\034S\226>\240\345\250>>\341\'=O]\304>(\362w\276GH<\276K\223\216=\333\023\200\276\\\031\255\276q<O=>\016\232\274W\225\333=\234\000]\276\226\337s\276\n\004\376=\241\305\225\276\352\\e\2769Yz<\345\254\250\276\234\372\335\275\252\302\233;[\024\n\276.IJ\273\250$9>\2331\032\276\020:H\276|Sc=[\037z\276\2423h\276\033\260\241<v\216\223\276j\236\310\275\365\263\255=S\2663\276,\306\327\275\206}\232=l\305\316\275p\021\267\275\26761\274FyN\276S$\344\275\255\352\226\275\274\014\234\276e\264+\276\327\375\315\274{;!\276\241\334T\276\0006\230=\370\203\337\275\307\371\217\276\006\253\272\275\205\004\235\276\031\320\263\275;\3356\276\223L-\276\020\215O\276\365\006,=\377\201\353\275\212\247\261<\3255X=$\300\327<{\250\234>\016\235\247<O\263\203=\'\275+<\260\3566\275\301I\036>T7&<\010\234\255\275jD\256=\310E =vR\233=q\323\207>\204Y\214\273/\304j:\003\360Y<6\242\310<\263\264$\275\233\005\302=\035H&\272\362T]=a\277\242=$\247:>\320\331>\276\0366:=\337F5=\365Y\363<\377\375y=\r,]=\257\261R<P\026\276=:\340R>gA\320=y\334\373=\250xy>\037\253\365\274a4\251=\0101\t=f\274\275\275\311\035\205=\000\237\352=\363(\217\275\031\202}=\243 \000<\227\035\325<\300\n\225=};C<\325;\225\275nBO\275*\207z\274\211\260E\273\r\327\033>\'\313{=A\363\215=\250N\236\275\r)&\274\271\245\350\275o\266\252\273O\320\024\274/\336\006>\324\300\274\275\032\254Z=\341]\317=\"\r7=2\361\016>\007j\274=\334\243\217<\367\007G=:\322z=\271\263~=\215`\256\275\033R\031\276\227|\272=O\013\220=\377\274H\275\230t\013=f\305\001\275\346+\265\273z\016\213=\302B\304\275x\275\305=l\346\362<\304\032\316\274\300E\364\275\005\250\375\274F\271\364<\024{\036\276c\331\326<\211\365L\272\304\301\007\276>5\352=KH\220;m\252\317=\254J\014>!\332\250\275\026\320\214=pxv>\017/\273\275!\265\336<\225\301!>=S\257\275\021X\205;\322\207\320=\313\034\212\275\022\343^:E\244\224=\210\3116\275\365#\347=\024L\231>\014Up\2751\037j=\027pI>\331:Y\275\262\347\325<[\345\367=\346\234\022\275\252\262\253<.\352\247=\032\257\013\275O\204\374=\344\243\232>\315\210L\275\263\343\204=\203\177H>\317\3562\275\017;\t=\037\235\366=\303N\321\274\256{\361<\017\035\252=\004\2414\275\026\227\315=\225a\202>\374ah\275m\326Y=\006N*>\232uX\275\325\347\366<hn\327=\203\306\021\275\354.\316<\302\313\242=5\310x\276\324TV>FTx=\010r\000\2768\351\327=\234\325\r>]7\213\276\366\322a>|m%>52\251\275\266\024\236>\374\331[>\000\222=\276L\357\346=\266\nT>\371\264\270\275\227\251\373=f,\005>\230=x\276.\033\312=@\232\375=\214\251\361;\233\273C>9\324!>\366\223\224\276s/\270>\346Q\205>v\343T\276\363\273I>\030\246\215>\300\3764\276Y\214\325>lIh>\035oa\276\275\214&> \326(>\277\242\230\276&7\253>B\277\006>>\266@\276\354\243\236>\216 g>= \376\275\312\321\244>\001K\221>nKI\276\325v\313>X\274\236>Z\306\r\276\222nk>\005\031\235>\3576\t?_\035:\276\304\225\"=\227\275\243\276\210-o\276p1\252>\304|Q\276\316q\007>\323z4=\311\307\034\276\034[t\276\356\316\252>\304fI\276!p~\276\244C\233=\270\327\247\276\"2>\276\266\023\'=Z\037W>p\3160=\274\222M=3\025\333>\242\257J\276;\250\343=\032\233\332\275_\367c\276\232@\024>\356lG\276g\333\236=&\013\266=+\364\271>\352\223X\276,\376(\275\230\335\307>\306\271\234=;\301\317>\214\257\226>;\335\363<R\273\252>\030\253@\276\3570\337\275\311\273\323=\341nO\276YS@\276\213+\234=[\002H\275L0\273=DZ\262\275\201\364\361\275W\317\307\275l&&\274v\304\355\275}\207:<@\362\320<\t\314\200\275b\223\016\276}V\204\275\373!J=\303\016\024\274\230\304&<\247\351c=dwE\275\252\377\n\275sW\360\274\\\264\021=Ga\231\275\242F\265\275\332\006R=}\253\333\275\001\355F\275_x\271=Q\311\024=\243O\273\274\3072\275\275\320\227l\275`\213M=\036\323\013=<\334D\275B\026\246=\036x\333\273p\357\252=\271D\037?\026\205A?\207d\002?\217C\276>ru{>$\247\240=j\203s<\224\260\330>\304\025\206\275{\320\246=HE9=\212\326\350=\337wk=ok\200<\031\267\024\276\016\256E=n*U=LzE=\326G\376=\252w}:\303x\202;\177\332\361\274\253\271U\275p\303\313=$Td=\266\322\252=S\r\243\275[\203\235=\250\325\215= \360\371=>\344\031=>\371\322\273D\t\t>\202UH=SL\247=\201\233\262=\266\301\346\275p\272\325<\357\360\003=|\377\273=n35=\240\343J<\366\267\371=\025\002\310=\375\373\355=A\036\200=\232\0134=_V\353=\203\027\321\274\324\037?<x\242\216\275\005\370G<:\243\260\274\224\234\261\274\307U\002>R\n\347\275K^\235=\251\374\347<}\312@<\242i\254\274 \231\220=\035\240\204>\362K\220=\354]/\274\014\303D>\236\0139=\205\237\231\275>\237\005>Wg\'<y\322\001\276B\323\273=-\304M\2743\250\326<$\333\\>)X\354<\331\311\177\275\216\210\020><\023N\274;\267\366\275\002\233\267=\005\301\014\275\346e\030\276\355au=D\005\017\275\276j\347\274\220\320 >\326\352\013;Q\210\332\275\031\007\276=)\332\'\275P\225 \276\267\272G=9\020v\275d\3204\276V\205\245<??t\275\001\013\326\275\322\326\337=\233\373\355\274Iv#\276\'\274k=K\311o\275\277@=\276\327sw<m?\206\275N-R\276[\275C;,R\237\275\257\242\202\275\257\253\272=\025\001t>y\262\340>\305\371\242\275l\016-=R\222U\276\253\241\201\2759?\276>4\201\350\274\242\220 =\014\327\373\273z_\236<\352\333\014\276\335\002\270>^<~\275\236\271F\276\262/\260=]\244 \276\232-r\275\250^\017>t{\025>(/\017>\302\345\021=v\332\343>ML1\276\037M\212=ba\274\275c^s\2760\330F=\312\243;\276\r\312\373=\377\325y=\3548\352>\250\235\013\276>\255\261=\247?\340>z\315,=RZX>\252\244\342>\013k%>\257o\271>3\365\210\275\306_{<\351\351\243=\337x\276\275\335\306x\276\nA\201\273\341\206\305>\210<\264>>\333|>;\356\246>3\230\214\276\017\0132\276Q^\233>\261\356\201\276\222L\265>\2538\313>#\257\260>\032\233\233\276\362L\241>\337ah\276i!\220>\330\357\217>\202\031\021\276\233\032(\276\n\200\365>0\350O\276\273\002A\276\277\031\231>.\346N\276\346\230\211\276\223\324\260>\263\205\253>\266\'\226\276\267Z\251>\205<6\276&\330E\276\371\243\256>2\363X\276\313\315\221\276)\021}>\220\025\211\276\362\332\221\276\\\225\225>\374\005U>\207\311\271>\311\241m>\257K\202>y#\267>H\031\226>\034\245\204>@\321\020\276\252\376\235>q\326{\2766_1\276\352\001]=\007\036\242\275\354:\266\275kE\322\275\r3\352\274w\355V<\353\207\247;%\003\312\275L\207\356\274\016\035\256=\321\225\237\275\rk\302=\253\242\254<\350\200\345<Ux,\275}\212\205<\000Ac\275_H\016\275\000\014\312\275u#\030=$\005E= 5\200\275\004)\357\275\024\230\216\274\005\201\004\276A\007\351<\226m\304\275\224\330\364\274\342\212\337\274S\316b=\353*\246;G\372\210\275\252\357\244\275d\361\347\2756\235\213=\222\330\033\275y\023\003\2750\347\201\273RE\341;\357\230\003=,\200\341\275\177\365\266\275g\342\262\274\247\347\361\275\007\353\324\275\007\237\246=\261\274e<\250L\023\275\250\213\250\274\343A\307=E\014\035=}\340\241>\302\336y\273zd\302=B\347\307=P\222\263\274\267\373\271=\372\262\212=\271\022\005\275+\247\252=\2318\304\274E\252\000<\257\342:>n\031\204=\003\020\333=\203\246\222<B\241\275=\302\2009=\341Y\207\274\266\201x<\352\314\344=I\006\351<-\327%>W\377\250\275ML-=\366\240R\274\315\301\227<\273\217\215>4!\363=\310\257\357<0\247\344<\231\002m>\324K%<8w\216<\332\255v>\265\247\252\275\252R\335=\345\305Q>\317\002T\275d\363I=j}\002=\210\234\234<\301\\\225\274oa\242=j\314S\2757$\301=;\260\230=\267\256\253=c\362\001>\312\225w>b\327\010\276\254P\037\276\341\216T=EIf\276\253\265O=\302\324\230<\363Q\221<\235F\203\276B\347\252=\262f\353\275H7\035>\301\310\357<\214\026b\276\322P\215\276\275\277\230>\313K7\276\027-\021\276~?V=_Y\220\276C\307=\276\333\'\205=.\336\026>p\331\212\27639R=\203[\216\276&c\223\276A4\332=\364\226m\276\004\271t\276y\272r=\033N\n\274\303\342\220\276`\265\002>\026\241\322=\301\245\340=*\346\375\273zV\303\274\211\256\220=\032\225+=\235\362\037>|\370g\276V\031\216>\253\331\177\276\243\'{\276\322f\022\275\212\370\204<\322\310I=\361T\177\275\344Y6\276\347\036j\276\365rk\274\230N\244\275\265\\i\275w\316\210=\334\023S>\356\023\016\276\232&S\272\3101\004\276\2229\350\275\220.\277<\213\265\257\275\0012\220\276\207\251\246=7\032\033\276\210B\316\275f\307\357\275\177\267\003\2760a\205\276\301\234\276\274=`\002\276\363\240<\276>\250\302=\330f\003\276\207:I\276\375\235\346=s8I\276\333v\204\276\322\320\345=\214\272\013\276\316\215\343\275<\010-=\272K\014\276U\310^>BF\255>\2055\200\275\303JS>X\272\026>\002@\304=v\025R\276\336i\353=\214z\374\274\221\261\005\276N\230\230=~\213\255\274\037)\023\275q\241\254<0\006\223<\222N\221<G\200\035\274\203\355\001>^\355%=\316(\017\275\217J\2428#S\010>uj\265\274s\256\006>\032\354\007<\300\363\227=\343\316\273=iB\377=\264\325\261=\311g>\274\322\363D\274H\236\206\273\033\003\">T\375,=i)\025\276]f\320\275\001\031\260\274M\363\337=\\\230a<!\215\010=Q\355\225<J\007\370\274\023,\316=\363-\363\275b|\321=0\020\236=\201\320\240\275bd\t\274\336\240\234\275\003\226\010\275\213>\320\275Zs\006\276\327c\264\274J\371\240\275\013`\241=[\273\272=Af\362=I\335\346=\r\036\300\276\235\356\226>\256\013\331>\037Z\361>\210\"\206\276\314\360,\274\376t\206\276\351\211\220\276\264\344\317>\251@s\276\307[G>\340\342\016>/\356\275\276[\354\224\2761\177\317>\245\023y\276<\'\224\276x\203@\275TO\025\2772a\261\276\276_c\275\377\016\340>a\245c=\340\244\222\273\020\245\352>6\3461\276A~\021>Z\244\240\276\030\353\243\276x\255)\275\331\376\241\276\013)\213\274}\374\010>cZ\217>\2635\256\276\321\200S=\026z\301>b+\020>\220\332\315>\304\250\262>\036\332C=\271\005\276>v\235\320\276\260\016W\275\377\311#>\307\317\262\276\356\206Z\276\226\266\231<\346\336\003\276V\223<>\240\251\317>\230\366\005?\245\"\220\276\022\261\364=\257\323\244\276\203\333\177\276\241y\332>-L\242\275L\247\034>\022\301\031=y\204\264\275k\016\205\276@\206\304>P\021\217\275\314\207\235\276pU\200:~\007\255\276.\027k\276hq2=\3436\254>\000]\206=0\264v=E\022\276>(!\223\275\217\204@<\240WP\275\023\357\220\276\301\3601>\230vz\276=C\302\274\331\323*=\257\345\261>Z.\242\276\214$x=\024|\000?\270c\350=\241m\223>\222\263\256>\374j\036>\330\347\263>\233\363\003\276f~\035;\247\021\361\273|\363\242\276\356\0348\276\013\356\325=\211%\032>\315\021\030=i.3=\347\337\332=\312T\370\274U\367\2619\032E\325=\353e\331=l\r\263\271\001\2465\273f\236\001=\351\223\026=\350\023\261<+\352d\275\014\257{\275\355D\005<S\371\"\276\022=E\275N\010\241\275\250\261S\275\036\220\021\276\337\r\262\272{\031\010\274\032\004\000\276S\210\033\276\\Y\365\275\264\301\272\2754i\223=I3\262\274\t\252\347\274\023\266\254=2\236\224\275\221Z\006\275\270\263\004\274\215\240?\275:\334\021<\375\231\311<\303\013&\275k\217\374\275\365\010H=K\034[\274\313\237\264<\261l\267=Y\\\213\275|\245\221\275\315~\354\274\232i\217=fC\233<\323\270W\274\200\225i\275\361\230\226\275\213*\r=\037\341\361\274?\254Z=at#>g@\320<\244\321\\\275\256 \375\273=\323\216\275\322\007\264=\340\204\004>,\372\026>\2051}=y\235F=T\277\314\274\262g\027>\311\271\366<\276\030\255=\360\017D\274\304Q\253=\264J\307=\346\200X;\300 \272;\\\376!=\006_]\274\245G\343=M@\006>\234V4> \306\036;\330\023\210=Af\207<\023\371\2177\220\215/=\365\022\300=\340\333\025\275\336\031\335\275*\007 =\352\366J=}\036\000\276V\261\207\275\214^\263;Ra\003\275\375[\000>$_\266=\n\357\342=\tD\377=\035(g=x\302\357\275\036\375\333\2751\375\206>\222[)<\340Z\214=\r\364{\274\213\025\345=\2345\373\273M\372N=\204\266\206\275W\326\326=x\224\354=\030\373y=\211\316\262\275\235\001\302=\021\010\233\273\333\t\022>\316\220\334=\360\235\346=\251\235\353\272\313r\213\274K\223\372<\321\212r<\367\222\003<\303\027\357\275\031\364\003=\014/O<3H\274<#@5>R\204\340:t\271\212\273G6\206=T\224f=n\370\323=\221\365\201\274PR\226=\235\366\007=\335\261D\273\210\327\032=G&\357\275\250L\014=\020\273\255<\245\201\222\275I\254\025>\345\271]=\202q\331\273\270\320\321:w1\216<\350\265\202<\207, <\316;u>\t\273\264=h\243\210<\262c\031>\325@\002>\376B\016=r\335@=\223\0264\274\223\360\270;\357\233\263\274H\343\231<AX\357=\243\022\317=?\337\007>\305K\027>\237\321\006=K\\\370=\nPd=\357G\t>\323\362\377=f\225\006\274\020\254\367;\2164\264=WX\336=\306\265\'=9\257\032>,\357Y>\277\332\001>\350y\344=7\325\214=r%\002>\324\337\265=\262\207\031>V\274\253=\'\312Q=\335\353b=\353\3356=h4;=\223\355\222=\010G\361=\247N\213\275Z\353\'=\231\034\304<\r\355\311<\227\260\254=^\377\217\276\364\370\245\276>\367\223>\3138\241\276Ggy\276\277:\227\276\323\327i\276Jx5\276\347H\215\276\344\331(\276\354\367R\276\322\tP\276\331\376\212\276\257\035e\276\010\316m\275\027\366O\276\353\350\211\276\026D8\276\210\314K\276;k\252>\230\016x\276\241J\344\275\034\251v\276\270\010\220\276\260\211\254\276Xe\210\276n\'\242\276\016\265:\276\245kG\276\010\225;\276\241{$\276X\205\034=\r\205L\276\\\342s\276\337{\211\276\026)\234\276+\2337\276^\271j\276\313uc\276Q\016@\276]LQ\276d/\211\276Ip!\2762\277\\\276\256#\210\276\331!>\276\000\374\242\2766\312?\2765\235\256\275Z\274S\274/\212\253\276~7\014\276\226]\374=7\004\273\276j\227~>\013Y\370=\366.\322\276\271\217^\2761\221X=2!4\276\247M\n><eK>\216\335M\276\205\225\331=\352\013\025>\265\032H\276\366\251\006\276{\313T>\320\214S\276)\316\212<\220\032\261=\213\371\220\276\315ze>lH\213>T\321\254\276\'\024%\276H\234\033>\215\306\224\276\305k\031\276\033\3620>,H\254\276\004\226[>\205+\260=\205Z\213\276\355\362*>\336B\023>h\034\372<\237\2154>\024\332\316\274\177C\314\276)\333\254=\360\275\372=\375k\251\276\333\3627>U\332\220=E\034H\276q\326W>\003\304N>\2335z=\350\244\031\275X}\264>;#\342=q\315\206>\275\246\342>4*\334=@\212}>?\033\020>F\3177=\204\377\222>\034&\334>\317/p>]\177/>Z\250\257>\367\210\n>\t\013\246>7#\323>\366\226\221:\225\024\223\275\2618/><\2022=@\273\020>\212\037f>P\211\273\273\r\nC>\366\001\305>\326\251L=M\177\354=\344\036.>FO\244=jO\215=Rw\274>>\000\220\273\243\366\301>\211\\\270=~\373\030=\004\320\017>\033\374C>\201\221)=b\245j>\2405[=\3451\317\274\351\002\306=W\\\307>\022\272\200=\3564\035=3\2373=pd\316\274\301\3468\275.\305T= \251|;s\365\225\274\373\'\030\275\272\215-=\313,]=IZ\006\275\037\301\311\275\333Q\322\275~s\317;\331\n\323<\346^^\275\254\315\361\275,}\010=]\315\374\274\030]\353\275\243,\243<e\360\201\275j@\006<\303\3672=\362\224r\274|xi\274\372n\241\273*\205\350\275\216@\320\275\300e\300<\263\026\315\275\233\217\243\275^\237\025<PA2\275h\371\004=\223\332\235\2753Q\364\275T\366\264\275H\345\211=\nyl<\231\013k=k\232\222\275j*\t\274\016\'\327;L\247\037=:\020N\274~p\326\275\t\216\010=I/u=\327u\257>6\205\377\274*\342\360=\271\206\262=\320}\236\275\0356B>}\004\263>v&\025\2752\017@>\023>#?\237v\016\276A\366S>\020K\242\275\244\205D\275\2063a>\346\367\341>\315\030*\274{]\362=\313\220^\275>0)<\321\"z>\035\374@\276\210\002\321\274\'\031i>bO\305>a\324R\274\267\354m>$\253\026\2763\235C\2753B\317=\316@\003?\321:\241<\016\034N=\336R\311\275\373\342\225\275\222wt=\tgh>#zd\276?\022\353<\210:\256>\213\353^\276\004\022\360<.f\216>\031%\377\275\032E$=\354\202K\276\256\247\221\276~d\020\275A\006G\275\212\033\323=b\022\372\275f\355m=\212\304\r>\234\221J\276\270\314\332=2\363`>\354\010\271\273\275\346\315=\346\307\n>vC\225\274%\253;=\231\262[>2*\271\274\0375\276\274\272\312\233=E\2206\276~f\214<\352\275\266=>\242R=\327\233\214>=\tf>\006{#\276\242?W\275\326\223\220=f\270\373\275%5\024\275\222\006\252>qc@\276b\361\266=\007\362 >l\205<=\\\363b=k\221Q>\023H\212\275\024<\206\274\367\251 >vBX\276\256\263\324<\241\355K>\331E\357\275\217\t\231\273\316\025W>\310\333&\276\307\340\343=\357\004\351>\261a\240\271\002jP\275\231\207\245<r\362\302>\357]\276=\374\034\307=\335\204\006><\213T<\226&\311<\333\336C<M\271\005=S\025\210\274\306\221\017=\214\346\324=\342\023\372<\220\037\352=}\303D=\320\224\222=t\001\303=\\\347E=g\3728=\200\233\315=G~\026>\243\226\210\274\202j\360\275\242\210B=\037E\322=s@\000>\336\353\267<&\031j=\020\211\003>X%\022=E\251A=J\375\241<\222\343\361=\345\225\307=0P\336\2750\353\325\274\225[\014\274L\326h\275\256\265\030\275\003\247\221;\302O==A3d\274\276\355:=|\033\276=\370+\257=\\\233w\273\223\343?\276]\340;\276\321\332\205>E\263Q\276\346\327\221\275{VN>\301\324\005\276\371\303\031\275\320=s>\276b\232\275oU9\275\010{\200>a\036*\276l\367\215:\310kP>29\322\275\272c\032\274\307\262\201>Z\2476\276\244\324\265\275\211\014[>G\350<\276/\017P\275%@\211>9eL\276\311\275j\275W/m>\n\314\204\275\215\205\026\275\270:\240>Wc\014\276\001%\243\275\2415y>+uD\276u\251\003\274\244\265\217>\024\\+\2768Q~\275\034\212U>\027\377+\276\301\243W\275mI\'>\217\325\254\275I6}\275;*j>\377\033\364\275\205\237\253\274;\340\212>\207lx\276\027\245\323\276\313\010\342\276v\254\270\276\212w\013\277^\352\025\277\351\016\272\276@<\r\277\275O\030\277\330C}\276<\317\333\276\"$\356\2765D\300\276\244A\017\277\375\350\030\277\271\256)\277\201]^\277\022\035n\277^\006*\277\003\344_\277\\\240p\277\317d\300\276\220\250\022\277\035\'\037\277|\364\303\276y\036\022\277G4\033\277\024\036+\277\003\277`\277\315\rp\277\370\262)\277\254N`\277m\220p\277\336\026\276\276\265\017\022\277\266\365\035\277\221\267\202\276<o\336\276\tl\352\276MQ\276\276\376\210\020\277\327\377\031\277\366\022\273\276\366\255\017\277\313\320\031\277\221\037x\276\004\364\333\276\2713\354\276\215&\316\275/\360\n>\277\365\270>\024\344\267>\010\351\237\276\007\325\266=\374\036\232\276\004s\204\276\260\310\320>\236\007\'\276T\246\312=s\"\024\275\371\310\314\274KD\241\276\306\002\333>F\213\026\276h\304\205\276\357\211\234\275\024\006b\276\026S\025\276\364\230\016\275_\003\241>\340\002\335\274\240\3034\275}\031\227>A\315\026\276\261\252\333<3\234\t\276\306a\230\276\200\343r\274\205\261P\276aS\007\273 \322x\275\355\367\241>\304\022\226\276\374c4=\262\314\371>\031\364\177\2743\226}>\224\251\225>X\013\036>\366\301\310>-\002\264\275a\"i\275\007\220\235=EL-\276\223\216H\276C\357/\274\347\320\270\275\344\367\275=\243\314\036\276l\025\243\275\202p\020>\345v\270\275\326\360\013\276\020\324\314=\024h-\275ff+\276\342$\304\274\240\027:\276K\266\377\274\004\235/>E#\004\276\3114\207\275\177\207\342=\021\010\373\275\226\252\346\275\251\301\017<\365\251\206\2759T\033\276]\206\t\275\320\232\336\275\016\261\345\275g\317\360\273\031\254\202\275\212=k\275\212o\356=\334\\\312\275\031\271\004\276\270.i\275\232\262|\274\256\374\206\276\304\253\375<\374\325Z\275\326~\033\276\013]\000>\014\257\373\275\375(%\276?\323\257=}\022/\274e\345\355\275\353\004/\275\266\310\350\275,d\203\276\363\203\017\276\005l\033\276\254\006\325\273m\016\037=Q\200\r=O\200A>\377^\000>\225\376\005\275\255Co\273\032L\204=X\330:>\375\214\227\274P\247\265<|\254\204=:k\020>\r\303\211==\3566>\017\247\035;\273\260\310=\377o\243=l\227\376=\213\340\231=I\263\216<\261\300\030>\304\033\252<C\262\222<\360\315\030>\267\221\025\276\007Z\245=\0210\344<^2\304;\362`.>@\\\326=\365\020\237=\340;\333=\224!\214>\334\311b=\257\233\254\274L(\340=/\373;\275\316h\206=\261\275\234=N\"~=\035\351\235=^\212\304\274Y\006\246<\312\2756\275\327\016\352=\355\321M\275\014O/\270k\322\014>\217S\037\271\231>\235\275#,\023\276b\246?=2Z\030\275\370\025S\274zu\257\274;\222\227\274\257\367\315=f\246v\275\235\332\253=A\211\350=\371\316\334<\022\226\023\275\361\250 =)x\037\275\321U\256=\254\274\377\274\260\227\206\272\231\305\303<\326:\217<\213\210\235=c\035\366=!\205\222\275\361>\306\275}\247\346=\354\352\205=\020\337\006\275\310\026q<\245v\367<\024?\202\275d\031\276<\017w\252\275>&\333=\246\377\363=\014D\304\275\2615@\276!\002m\2759m\223<w\"\213\275\221\373\205\274!\210\362\274bw\371\2756\021\307\274\223\243\275\274\312O\016=&\350\013\274u\211\r\277\252\253\004\2762\371N>g\225\006\277\032\224\246\275\177\357\215>\034\303\t\277\022$\267\275\353v\213>\237b\026\277\355\340 \276\020\337@>\204\377\373\276\257U6\275\330\213\236>\027i\326\276\r\030\202=\032\"\354>\360\013\335\276\216\030^=\206\265\352>&~\007\277\202\211\224\275\026\371\230>\371H\365\276\033#\355\274\253\343\244>\343\021\317\276\222U\244=\367m\364>&\317\326\276\326a\213=\251\035\361>\265q\005\277\324O|\275\370%\235>$0\005\277\332\310\274\275\235_n>\225\240\373\2760\243\"\275\212z\240>\263\343\001\277!\tW\275\376\276\234>b>\020\277\177\212\001\276\365\344X>O\023\016\276\006\022P>\025\234 >\024\3133\276\334\021?>z\336O>q\235o\276]\330\215=\024o?>{\264<\276\220<\235>%\202E>\215\211@\276\210\271o=\366\317\216>7\212W\276\345l\300<F\211\001>8#\211\276$4\205<\372C4>}<\021\276\326\325\271=\206i)>(\277\234\276\246\205\261>\014\324\177>\305;X\276U^H>R\203h>\247\326\207\276\253L\206>\337\022B>\312S\275\276\277\017P>\220\256\\>@y<\276v\n\225>9\336a>\315\222\212\276\233K\263>\232\355\217>~\030\021\276\313\201\273>\031x\210>\321\352\214\276`(\303>\334:\257>4\253\342\275!Y1>\025\263\250>t\030\022?0\277\213\276\3737\027=\236\304\203\276\211\324\221\276!\376\343>L\217\323\2757Q&>\270\317B\274\032\\\2579\261\215C\276\274\303\274>m\253\013\276\305%a\2767\351\007=\361\374\224\276\031Y&\276\204(\360=\277\255~>}\372\t>\333\231\311=\215}\235>\327-\246\275j\212\n\274\003\260\t\276w\260\207\276\275\360B>\215Q\367\275\007A\r\275\347@\343=b\265\276>\373\373\223\276\224=\277=\203\332\004?\026\327b\275\273)\302>\253\337\334>\347\340\000>\031J\346>\035Z\030\276\321\212\317\275\245\244\270=Q\226m\276r\025\203\276\017\235\334=\261\245*\275\014\252\365\274rb\306\275b\222\003\275\006\003\307;\305;\234\275\363d\217\274-\321\261\275H\361\013\277\r\023\016\276\030\360\014\276\364\251\'\276?\203\236=\254\007\304\274\\\351\014\276jc\315\275\314cp\275eN#\276\346\222\017\275\203\257\336\275\264\222\017\276\253J\336\274\237\267\214\275\246\271T\2754po\275K\343\025>g\234\334\275 \361\r=/(\307\274\323\374\257\275H\345&=7|Q\275\302\003\222\275\233\264\370=`\317\251=-\215\016\275\373\241\213>O\230\335>\2723\022>\204f\256>\013dz>\325\330\251=\307\230\205>\340\272\267>\256r\331=\255\324X>\244$\221=\262\361\016>\000\342\304=\343}O\274\246J\361\273\313\001\240=\362\000\005;\350\313\221=\247\345\276<\301z\004>\246X\346\274`\357\221=\037\374H\275\022\"\230<G\320\377=\343f\266=\344\313\036\275\037xH=w\366\024>\257>\005\275\320jg\274\252\301\231<\013)\200=\252W\370=\353]\020=uJ\212==-\333\275:JB\275\225\375G=\266\324Y=\255\0211\273\361\223\247\273!\247`=\313\252\343=F\3620\273\330G\021\275\224\347 \274\020qk<\023\202\004\275\017c\023\276\203-\335:\025\265%\275\255`\344\275\3604@\275^C>=\333\203\013\275\210\351\325=\356M\205<\226\270\264=|\230\013>\256\201\370\275:\306\033>\202\254c\275R\rh\275\336(L>\267\201\027\275\3121\353\273\227\363\205>\237Y\277\273\034\320&=\352C\217>\250\013\300<\007=+\276\213\341\342=D\203\277\275\244\301\327\275\'\301*>\224\347\251\275u\325m\275\267\203Z>\271\303g\275\367;\302\274\255\275j>\"\345\025\275\206\266T\276\344b\231=\250g\023\276L\326\033\276s\n\361=\336\276\360\275G\321\335\275\357\025(>\254\275\301\275\024\237\232\275f\210H>:\365\201\275\347+l\276/\323\323<\365?\035\276\245\321=\276M\360\236=\305%\n\276\006\341$\276`\014\345=\t;\354\275\333y\377\275\212\034\t>\rD\274\275\007\206\033\275*\317\006>\'\361i>_n\336>\207(\"\276\010\362\366=\277\317`\276\035]!\276\327^\326>2\031\201\275\213\001\'>\200\242\234=\025\353\301\274hU\037\276\350/\327>K\027\357\275n\210&\276\025\351\230=\353m\373\275|\214\346\275z\272\216=\200t\202>\233\274\335=^`\341=G\\\332>\365T\231\275\267\266\001=\034\332\004\274\366\213<\276\214`\336=\270>\354\275B\252\005>\021\020\002>\025\204\251>4\216(\276g\324\311=A\361\351>9\270\006>V\025\204>\030[\320>\013D*>\023\241\304>\373\340\030=j)\n\274&\367\275=R\316\370\275\007\243\021\276\252\005\325;n\347\256>\336\003\220>\350P\256>Y\244\214>\266iK\276-\316\213\276\370\224\274>K\374J\276\022\337\320>\262\256\275>\177\032\272>\tm\004\276\255~\241>{D\226\276M\004\246>\335\023\237>\242\241n\276\202O\215\276#{\261>V\007\033\276\3419]\276\026\003v>\330c]\276X\r\223\276*Q\210>\341\032\224>\233\002\214\276\376\203\207>+\037C\276O\354\277\276\244\033\315>\217q\221\276\275G\201\276_\266\261>\200J`\276_\364\220\276\322\371\225>\233\010W>\211\000[>:\356\225>\351T\232>\301\223\234>\330\226\324>\2020\254>\016w\202\276\203-\277>\227H\201\276\201\237|\276\201i\032\275|Q\311\275\3238\"\276\227R\205=(\317!<\357ik=1\353\213=\034ET=w\300T;\275\220u=\230e\232<\222\232\307=\230\324\200\274R\357\010\275\337\220\266\272*dF\275\205\267R\273\310|\214=G\375>\273[\252\225=D!\260\275\343\032\232=^\274\314\275\227%P\271\316\025*\273\267\177\300\275(}\206\275\275\036>\275\334~\307\275\225l\250\274\302\206\303=d\323\330\274\373\315\030<\021\004P\275\346\332\261<\r\371-=\223\230n\274\003\226\356\2742w\206<=Y\200\273\347\310\373\275\331\007\267\275\217\025\006\275\335\224\243\275p\351\217<\023\315A<\240\2213\275g\245\261<\357\257\266=j\370\217\274m\262\033\275[G\350>\305n\324=\3013\n>\036b\201=\310l\327\272\265\257Z>6k\347<ou\337=\n\364\356<\302\366\277=\224 t=\244^L>N\317\261=\236\322\361\273\311Z\227<\0333\277=\307R\223<\352\263\344=0~\335=\004~3=\363\261\235\274 L\246>\014N\036\275\362/Q\274JL?\273(\206\233\275D\305\222>!\002R=9\031\234<]yz\2747\265X>\302\305\336=\022S#=S,A>R\224&==\255\266=k\302h>#%\\=\323\225N>\315_*\273\244}\253\275 c\363=\2519\346\274\272,\036=\302.9=\260\370\352<\274\365i<\277\330\312\274\200\356\006>h\253\362\275=+$\276\343\036\257=\252m+\276,IS>\327\020\364=M\223w=\212\364Q\276dw\325=@J.\276\261>\234>\222\343|=\030\227\037\276K\216\200\276\261\341\025>\315\374\354\275\276\201\014\276}5]=\013\355\210\276\rO\017\276n\345\244=N\250\246>;\231+\276\267(\234=c\\\211\276\214yM\276\223\370\205=A\272q\2762\240\231\276\242\340\t>\241\263\004=\326\262\273\275+\326\356\272\000\231\357=r\304\375=\3221%\275\2577\357=W\327\206={\030\031>\246<\004>Y\262M\276\027\266\253=\222\312v\276\353\272\000\276d\275\273:%\334\311=\003\253\224=\212?G\276\320\004\357\275\211\253\373\275\241\\.=\032\266\017\274\351-0\275#\311x\272\260\355\331=|(E\276\237\315\004>\370\215j\275\272\344\252\275!\032g=\317\345\320\275\244|\020\276\023\374\331=\020r\036\276\310\271Q\276\366.\002;A}g\276\033\201\031\276gI\275=\035\222Q\276Jn;\276[\334W=!\347\346\275\200H\217\276\345n\200=\211i\203\2764hD\276\3354\005>\230\272\312\275\345\372\245\275\316s]=\372\345\314\274\004\\X>c\332Y>\326\234\347<\304\247\212><UM=\211\207\232\274\013\300^\276\260\354.\274Kb\361\275**\205\276\037\356e<\007\3331=\321u(\275\337\213a\275;\n\271=\327\234\023>\274\340\312=I\253h<;\034\260\275\304\246\212=z\344\250\275\207I\262=\263\247\255=\231C\346<|\252\246\274\331$\">\211\3565=\325\252\n>\r\260O>\261\242\211<\022\242\371=o\273\013>\314#\230=\037\241\350=\325X\325;\036/\363\274\310wD=\212\370\221<M\031\275<P\316\253=\327\302I\272z9\350\2725J\014=Q|\357\274s#\241\273p\235\240=9\234\375\275\350R\001\275\352\001\213;\316\306\206;U\266-\275)\226\363\275P\204\t>iV\344\275\206Z`\274\340p\361=\211\356\231=j\353\323=#\202\266\2764\266\214>\207\325\336>&\342\271>\n\312\264\276)t8<\203at\276J\304X\276\257c\341>C\305W\276\307;\037>\303n\t>V\177\274\276\001\352\216\276e\264\354>D\365\223\276\365i\\\276K\347\260=\'\226\325\276\276\317R\276)\372\266;cZ\000?&\264\220=\036\343\313=\201\251\252>N\374\003\276\331\037\206<\227?\245\276\321\212v\276\204\335@\275\030\210\310\276\334\305$\274vt\237\2745\030\306>\350Q`\276\216\0354=\337\354\336>\342\310C<\234\234\255>:\211\351>L\231\236=p\215\271>g\204\262\276\230\213\236\275\243J\374=\206n\220\276\250\374\241\276\301\301\004>J\253p\2766\247\253>\024v\232>\325;\274>\325\025b\276\t\327\037\2757\223\247\276\243\336\213\276\266\360\225>\310y \2762\n}>\204\207\007=\263[$\276\000\232P\276\304/\314>\305\217e\276>\2040\276\027\226\345\274\332\366\216\276\210N\203\276E\247*=\007\264W>\203vM\2746\024\264\274\245\204\336>G\2428\276V\177\325;\300^\355\275\260\376\254\276\033O\035>\351\335\202\276ecR=5AI\274`=\304>\377\374p\276?\316\265\272\232F\351>\244\000\377<\t\321\242>8\374\311>\234\364 >m\343\265>\307_\304\275\027\215\252<\225\002\023>i\326-\276\343\016\217\276j\361\006>\3463@=\313\374G\276~r\235\275\\\031\023={C\020\276\361\225\340\275\343\200_<>\017\017\276]h\206\275\311\002f=\247\252\273\274_9.=\216[\345\274\307UR\276\253\210<\276\37102=\274_H\275\262\341\036\276A\014\026\275\224\365\342<\020\010\212\274\353\020\006>\205\227\220\275\002\373H<X\"x=\332\332\210\275O\253\'\276\027\n\037<\234s\t\276\004 \023\276\277\271\243=5\363\t\275J\251\366\274\311\267I\275\027w\340\275\330|\335\275\332\214\262\274\300\262K\276/\256\353\275\215\252\201\275\007\316\341\275w\241\344\275\347\201\317\275\335\3042\276\361\230\372\275%!\201\275\355y\362\275\250\"Q\276\037\000\327=\0314\351\275\346\203{\275\355\267\257\275\024|\033=\265L\245=$Te>\226\n2;\206\275\252<d\342t<\242D\321\274@)#=\260\210\010>\300m\363\273\235`\362=a\261\016>\354\272\231<Z\1779>k\325k>\264;\025>nN\021>\371\354d=\303\233\005>*]\250=\207UO\274\264:\260<\306\200\312<\2419\021>`\363\323<\317|@=8?\036>\243\333\025>\264G\020>\347\033Y<\311\244\003>\242\373d\274~r\031<5\226\357\275\276\253\010=c\272\226=B\356\035=\024\340\274=?\375\267=\242d\304;\370c_:\020l\224<\2720\n\275\236\262\022>\316\231\0327\310\301 =@\224\201;VQ\356=2r\200<\362L\302=g0\t<L\327\260=]\270\001\274n\301\021>\310\300\007<)_\031<\210,\202=\214\217\350=\2064\350=\361f\030<\177\030k\274h:\265\274\215\277\263<Q,\r>P\\\021>{]\245=\236\201\240=\260ro;\267\367I=\006G|\275\004P\261=\373\257\324=_\302\231=~|d>\310\360\213=m\370\024=\"P\021;\010<\264=1\310\004\275To\014>\001\000$=\255J\025=3\201x<z\323\333<\031\303\362<\r\350\006\275:|\024>\243\311\376\274\204\331\234=,\037\t\274H\242\261=\221\314(;{!\035>\020\034\037\2741\035\235\274/\317\001>\207\316A=d@,=)$\363=@9H=+\261l\275\262\261\200=pl\240\275\244\274\266=\'\016\271=Y\236\n\274\212\016\177>m\375]\274t\033+<AG\347<]\3225>\320\366\n>\240O\261=\372\271 >\035\240\364=\033\370\330=_\346\256=e\301\270=\221\242\232<\343L\254\273xO\271=\032~~=\371\003 >\025?\020>\222S\226=>`\374=\021\005%\274\244/\246=kH\221<B\331\021<\334\277\212<\036\317\020\275\336\244\001\275\002\254 <\337L&>\345\244\254<\220\326\014>c}\262=\036Z\021>\r\355\215<\262\244\231\276C\246$\276@\271\240>%\025\256\276\031\331\240\276L\323I\276HW\235\276\022\231v\276+\332[\276+\2778\276:\211\227\276\244\n\201\276\376gY\276\306_V\276\034T\343\275bL\216\276\330\223v\276\376\204\177\276TY\245\276\261\002\243>F\241h\276\331\275\020\276\252c\246\276\2051s\276\320\017D\276\260x>\276]jl\276\277\245=\276\223H\230\276\2228\202\276\337\237\216\276$^\357=AWE\276\3517\234\276fUR\276\224\306\222\276w\257\\\276\352\010<\276\026\033\227\276i\343d\276\246\313\210\276\353#I\276\031O\240\276\234\265\217\276J\370\227\276qLA\276\376\211h\276\370\177\211\276\2513\365\272\246\177\226=\310fx\276\350\357w>\230_\221=MH\177\276//\201>\231\005\217=\364\337\246\276D!:\275%\024\207=\201;Y\276\004t\037>\252;\035=u\017F\276i\352i>f\304:\274\277\204y\276\312\276\364=\200h\021\273Icr\276\220p\315=\214\375\036>\"\330\220\276\256\230\224>\2637%>\230S5\276 \350:\276\2070\252=\360\305\026\276\374<Y=O\362S=\374hN\276\342x\202>\267\317\306=\330LZ\276\001DF>\353\237\200=E6b=Z\221/>u\202K=\n\224\242\276#\276f>\n\022\342\274\207rn\276\373\002\323>\344\2105>\306t3\276Z\221\r?\370\234\220>\325\314f=\302$\000>\205\274\003?\340wn=! \345>$?\010?\213n}>\\(\322>\311\206\235>\325<\375=\202X\000??\217\r?S\2176>s\r\004?`\265\020?\'\276\027>\206\250\373>\372i\031?@\257G=\303\254`=\357\215+>\210\027 >\245\306W>o\\\265>\321\341/>v\017\014?)`\036?\317\024\350=q\236\n?P\223@>\306~\252<W&f>\221l\362>\322\036\020>\212\020\273>\376\001\213>\215\353\342=Z\254(>\237,{>\343_\r>/x\316>%eP>\237T\273=%\030\001?\347\213\023?\246\360\t>\220S;;\033\344\262\274\310\006\016\275\001\014\301\275=\320s\274P\310l=G\005\004\276\006\215==\267a\021<\0063\333<*\373\220\2751b\203=\303\214\265\271/\337\321\274v\021j=\375\340\321\275}j\024\274))\363\273\333\"\266\275\346\363d\275\336)\307< s\324\275\353P[\275$\300!=\315,\005\275W\024\303\275\356\030v\275a/^\275\005\224\374\275\343M\210=\340\373&=\370\304)<\013\t\023=\313\224\013<\302O*=gb7=\233\2647\274\177k\203\275\212\r\016=\316\341\301\275&\271\235\274\033\271\274<4\221\301\275`{\205<fU\203<\030\371\351\274A\377\2077\370\266\277:\237\374\347=\347Q\256>]<\252\276#\352O<\220FP\275f\3645\275\267\030X=\373\252\322>\330]\200\276/\266/<mw ?\371\032\025\276\035\225\022>\242\307\001\276\020l\013\276P&\013>\331\223\317>\035_\027\275=\267\261=\236XI\2767\253\326\275R\2663>\246?\372\275\363~\366\275\257;\326=p\301\322>\246i\324\275l\207\022>\nZ1\276\216M/\276t#\277=<\343\360>\305\3070\276\034\2578<\336\0042\276\351\307\345\275\311\251\253<\262\207\230>\327\016x\276L\232\025\275\017f\233>\235}p\276P\361\022\275\216\335\215>\026v\201\276\255\031\205<\233\247\"\276\033\236\233\276Q\220\r>\275.\003\275\177\371\260\275\220\026U\275sq\277\274T\262\306=\324\025P=\225k\304\274\202\304W\275\215\013\204=\306\245\350<\027\301I\274& v=\241\304\273\274\276\252\242\275\212\317\341=\231W&<\377\366\357<eP\037=v\213\362=e\035\r>\327=\347\274\201\216\231=\314\313\022=\037\241\277\275T\005\234\2757(\006=\206\014z\274\227 \374\274^x\232\275Y\224\362\273\276_\266\275\340J~<\326\033\006=I\2319=\004#\003\273\355\272\374\275\243\316\030=\226\227\010\276\343\203\030<C;\246\2755\223\327\274\211\376z<Vr5\275\3036n\274\211_\315=\342\326r\274\\\026O=\233y\270=\366&\t=\016\375R\275c\273\375\274\205\245\027=\302\226\032<\333\224\024>\254\034\245:z%\t\276\237\364\363:V\017v\2751\353\345=\375\331\005\274g\325\032>\274D\322\274\365\350-\274\245i\337=g\'\002>\014\204\004>\'\013\263=\320\204\010>\257\262\221\274\233\305\375=\366\000\033>fP\302\275iNN\275DH\345\274\276`\020>\305\177\033\273\000\255\323=i\333\271<\r\257\334=\216Rh<X\247]\2759\334\364=\255\333\207\273\252K\340\275\233\237\337\275\234G\204\2759n\315\275UtP\275V,\360\275/C\324=\036Y\r\276\276\363\306<\037\340\251\274&\350\013>ry\321\274\357Y\342\275\003\3606\275\014\260\205>\237_B\275I\004o=\177Jh>V\301\337\275\202\010\030\275jk\205>Q\227\017\276\335\302\016\276\324\014u>\354K\033\2767;\304\275}\370\037>_\210\r\276\306+\257\275;\220*>Eq\270\275\200\337 \276\214\334/>HnJ\276\036|:\275\004q]>sJ\016\276\260z\253\275*\264\254>\373\2308\276\006\206\331<#t\222>XB\357\275\256g\034\276\224\274\222>\034u\335\275\241Q\217\275\222\212\253>\217g\264\275\345=\017\276\204\t+>)\377\300\275\222<\203\275mn\023>pF\"\276\367\257f\275i\232\217>\037p\235\275<\331\207\274i\231j>\254\032\344<\177E\212\275\213\255\036\275\211\007\201<e\333\252\275\353\324b\275\036\306B\275p4\037\276\311\204\014\276T\332#\276K\266\217\276\261\351\216\276* \223=\030\335\250\274_\276\375;\021t\346=\263\326\204<\344\345@=\275\243\323<+#\250\275J\357\200\275\270J0\276D\r\227\276\337\202\230\276\236\031\224=\267\362\226\274\3574\031<\361\352\343=>\213\206<\266\272C=\306p\245<\203\326\260\275\177\350\207\275\277\0279\276p\377\232\276\222p\233\276\357\337\332<\323[\201\275\366\241\025\275\375\352\013<t\244\255\275h\243e\275/[~\275\0201)\276\303{\022\276\246 8\276\004\351\227\276\377B\224\276\267\356\010\276G\273J>\341g\215>\340\260\264>\232|\215\276n\271\"\275\347$\177\276[\245\201\276\025n\324>H,1\276T\237\t\274\317\016V\275\035\247\006\276\242\223p\276{\010\340>\322\272\007\276\303dp\276b\001\206=7\233\316\276k\305\003\276\235A\321<\177\363M>r`1<y\312\324=\225\225\215>\353\231n\276Ef\036\275\363\340\027\276\034Z\227\276\246}/=\267O\200\276\335\007F\275u\245U=\232~\323>\370\241\236\276\320m\203<\331\020\342>\004\363\n=|5\262>\224\264\306>,W\316\274\252V\252>N\n\233\275\003X\215\275\3618[\275\357\007\217\276\037g\247\276\255H;=V\313\005\276\251\276\006>\214J0\275c\374C\276P6\243=\230\314C\275\256\n\377\275\264\271\025>(\257#\275\t\340\242=\310Bp>@ot9\006\372\215\276\001\010\302=f\t\312\275\370\213\271\276(\372\036\275\346\351o\275\245G\221\276\310\254\010<n\325\202\275H{\334\275=\370\336<\255\306\221;\312\232\205\276\rj\224\275\033\265\376\275\304\331\326\276M\255\233\275\251\010\304\275c\252\211\276G\377\210\275d\231s\274\206\355*\276D4\227=U\261\253\274\036\250\204\276\344\274\205\275R\305\236\272\344\222\203\276[\274\362\275\2269\324<l\346\006\276O\244H\275\246h0=\347\320\236\274:\331`;\330\306\323=O\310\220<\307_z=\271%\245=P\324_>\241;\352=?u\214;\r\366\332\274a\265\264=\375nQ>\220,\251=\001\213\254\275\372\3722\274\030K\312=qR\215\272\266\032\202>\306\333\243\274(:\370=:\341\014>N\014e<e\222\371\274K\316\352=\271Z\\=V[\217=@l\230<\304Av>5\216\025\275P\231\256=Xv\271<\006\242\332=\253oI>-\373\373=\327\206\227\275w.\027\2758\0316>\221r\032=\3357\0029s\214V>\316\025\341\275o\335P<T\301N>C\326K=)\351%>k\"\207<B2\336\273\010\310\243=\300\317<<\306\374\225\275}\361\200=p\330$>2\270\242\2745\230)\276Q\224o\274\2309\006>\036\327\306\275hP\230=h{\035\274r\3164\276\360s\204<\356I\210\275\202\251\227=\262e\202=\332*\266=c\335\177\276\245\026\372<\021H\346=\266\316\343\274\362\354\372=\344\275n;\316BR\275{\262!=\317\264\037\275Zt\254=\305\312\317\275:\031\365\273[%\350\275\327\201\374<s\327\216\274\342\350\214\275\274\026\026>\257kh\275f1{<\233\205\352\275\020\177K=Iy\314= \266\301<\237\234\031\274R\212\232\275\363*H=\213\216\232\275\331\203%\276\235\027\002>\306U\236\275\3762\235\275\372S\034>,3\277<\350\025\270=u\274\023\275[\324\247:\006\351\206=2$Y\275\210\323\010;\'>\264=\210\2614\275d{\021=1\014\033>\366z\037\274\362\351\324=\342:\203>\233l\314\274\344\226J;\"\016k=\3649\201\275\271\334r\274g\375}=\300\262`\275\253\375\334<\222F\022>\252\364\355;\311\226\003>B\'\226>0\334B\274\004la<\327\255\207=\306\243J\275\tX\364\272\362\025\220=\021q&\275\305\242,=\002\335\034>\226^\301<\rN\023>Tu\234>\024\2357\272x\360\031=\272\362\266=\255{z\274\343D%=$\266\342=\201/J\273\270\200\235=$+8>j(\021=\364\234\031>>\\\224>\313\203p\276\310r\020>\236~A>\271\013b\276\350\027\363=,\tY>\031[\223\276\302\274G>\35105>N-C\276\255il>\237+\265= \331!\276\337WJ>\256\240\202>4[\201\276UN#>B\214H>\300\021\246\276O\373\340=\222\240\376=P\032 \275j\355\250=:%\005>\'3{\276\374n\245>_\006F>\231\202L\276J\216\210>(\263\223>\254=M\276\227\202\246>\215\022\231>\227\370\210\276\000k\235=\272\316\">\n\254f\276G\330\235>,\r\204>f\340\202\276h\246\227>\307\330$>\314r\210\276\t\270\235>\317J\240>\277?B\276\216.\274>)\006\253>\260\017q\276\263\364\213=\\\376\202>\3159\302>6\374\201\276\031\236s<\013b\232\276p\346\227\276\272W\242>.\035Z\276\026\300\002>\261\322m=\372\241\355\275\\{\212\276+\345\356>\217RA\276p\000d\276C\263\2679\344\270\256\276\251d6\276#5\010\275XEt>3\327\322<\\\330\261<\212\226\307>\374#+\276>\203\216\274\313\\@\276\357\365\235\276+\020\207=~\256\217\276m\257\021=b#\275=\267\330\312>\233\360\031\276\207$\254\274\362_\000?\356\276L\274\327\017\222>8Z\260>\341\204P=1\315\241>\2615b\276}\357)\276\263Bx=X\016\254\276\343I\225\276D|M;\234,\212\275\210\251\367<p\305\033\276*\246\223\275I\270\353\275%,\234\275\345\231 =[\315\026\275\257M\365\275y*k\275\t[V<\t%\256\275\250Wa=H\352\022\274>18\276\\\002Z=\034\026\302\275fp\007\275\375cz\275\254\272\226<\356\362/\276\245GA==\315\325\275\220\200\t\276)p\217=\r\036\254=\361\202\222\275!\177\020<\371\017@\275\024\004\007\276\017\237\346;\222\002\323\274R\237w\275\274s\345=\337\322\002=\231\264|\275\355\207\t?\225\220\333>!\003R>=R\347>\225\034C>\263\215\245=e\024}>\254\177\370>\363\350(\275\367.7>k\t\222=\331\271^<\260\037\346=@A\023\276\"\376m\275\236\234[<]P\343\273\017\257\247=\322:\360=\346\240\341=\201=\312\2758\336\005>3H\023\276\362\200\016>\263\367\264=\270\220\263\274\267X\210\275i\233\221=\274`x=\302(\244=\301\307g=\014\335\034=f4>=3\313\027>\033\020\364=R\376\031=\020\221\270\275\"\003\205=\3456\234=\350\335x=\345\306\214=L\361\"=\n\216\302<\215\313\345=\233a\332=U?P=\025\t\350=\226\221\256=\322dM\275e\305\366\274\265\342Z\2750\225\206\275\202c\231\275.\302\341;\230\014\373=\352rA\275\000t\030\274\031^\356\274\3745M:\222*c\273\352\306\305\274\352\013\213=c\225\220\274\336\252\315\273\032r\275=\177\013@\274LE\267;&\347\267=\257\272\010\274\256\240\013;\t\223\314=<\n\211\274|\334Z\275\202\202\027=z*8\275\343D\270\274\375\210\203=\354\017\240\274\245;N\274\003\223\215=\030\334\304\2740A\330\274\265\177\220=\3105 